#include "model_data_quant.h"
alignas(8)
const unsigned char model_data_quant[] = {
  0x1c, 0x00, 0x00, 0x00, 0x54, 0x46, 0x4c, 0x33, 0x14, 0x00, 0x20, 0x00,
  0x1c, 0x00, 0x18, 0x00, 0x14, 0x00, 0x10, 0x00, 0x0c, 0x00, 0x00, 0x00,
  0x08, 0x00, 0x04, 0x00, 0x14, 0x00, 0x00, 0x00, 0x1c, 0x00, 0x00, 0x00,
  0x90, 0x00, 0x00, 0x00, 0xe8, 0x00, 0x00, 0x00, 0x94, 0x16, 0x00, 0x00,
  0xa4, 0x16, 0x00, 0x00, 0xd0, 0x1e, 0x00, 0x00, 0x03, 0x00, 0x00, 0x00,
  0x01, 0x00, 0x00, 0x00, 0x10, 0x00, 0x00, 0x00, 0x00, 0x00, 0x0a, 0x00,
  0x10, 0x00, 0x0c, 0x00, 0x08, 0x00, 0x04, 0x00, 0x0a, 0x00, 0x00, 0x00,
  0x0c, 0x00, 0x00, 0x00, 0x1c, 0x00, 0x00, 0x00, 0x38, 0x00, 0x00, 0x00,
  0x0f, 0x00, 0x00, 0x00, 0x73, 0x65, 0x72, 0x76, 0x69, 0x6e, 0x67, 0x5f,
  0x64, 0x65, 0x66, 0x61, 0x75, 0x6c, 0x74, 0x00, 0x01, 0x00, 0x00, 0x00,
  0x04, 0x00, 0x00, 0x00, 0x98, 0xff, 0xff, 0xff, 0x0c, 0x00, 0x00, 0x00,
  0x04, 0x00, 0x00, 0x00, 0x07, 0x00, 0x00, 0x00, 0x64, 0x65, 0x6e, 0x73,
  0x65, 0x5f, 0x33, 0x00, 0x01, 0x00, 0x00, 0x00, 0x04, 0x00, 0x00, 0x00,
  0xfa, 0xe9, 0xff, 0xff, 0x04, 0x00, 0x00, 0x00, 0x0b, 0x00, 0x00, 0x00,
  0x64, 0x65, 0x6e, 0x73, 0x65, 0x5f, 0x69, 0x6e, 0x70, 0x75, 0x74, 0x00,
  0x02, 0x00, 0x00, 0x00, 0x34, 0x00, 0x00, 0x00, 0x04, 0x00, 0x00, 0x00,
  0xdc, 0xff, 0xff, 0xff, 0x0f, 0x00, 0x00, 0x00, 0x04, 0x00, 0x00, 0x00,
  0x13, 0x00, 0x00, 0x00, 0x43, 0x4f, 0x4e, 0x56, 0x45, 0x52, 0x53, 0x49,
  0x4f, 0x4e, 0x5f, 0x4d, 0x45, 0x54, 0x41, 0x44, 0x41, 0x54, 0x41, 0x00,
  0x08, 0x00, 0x0c, 0x00, 0x08, 0x00, 0x04, 0x00, 0x08, 0x00, 0x00, 0x00,
  0x0e, 0x00, 0x00, 0x00, 0x04, 0x00, 0x00, 0x00, 0x13, 0x00, 0x00, 0x00,
  0x6d, 0x69, 0x6e, 0x5f, 0x72, 0x75, 0x6e, 0x74, 0x69, 0x6d, 0x65, 0x5f,
  0x76, 0x65, 0x72, 0x73, 0x69, 0x6f, 0x6e, 0x00, 0x10, 0x00, 0x00, 0x00,
  0xa8, 0x15, 0x00, 0x00, 0xa0, 0x15, 0x00, 0x00, 0x8c, 0x15, 0x00, 0x00,
  0x6c, 0x15, 0x00, 0x00, 0x3c, 0x15, 0x00, 0x00, 0x2c, 0x13, 0x00, 0x00,
  0x1c, 0x12, 0x00, 0x00, 0x0c, 0x02, 0x00, 0x00, 0xfc, 0x00, 0x00, 0x00,
  0xac, 0x00, 0x00, 0x00, 0xa4, 0x00, 0x00, 0x00, 0x9c, 0x00, 0x00, 0x00,
  0x94, 0x00, 0x00, 0x00, 0x8c, 0x00, 0x00, 0x00, 0x6c, 0x00, 0x00, 0x00,
  0x04, 0x00, 0x00, 0x00, 0xb2, 0xea, 0xff, 0xff, 0x04, 0x00, 0x00, 0x00,
  0x58, 0x00, 0x00, 0x00, 0x0c, 0x00, 0x00, 0x00, 0x08, 0x00, 0x0e, 0x00,
  0x08, 0x00, 0x04, 0x00, 0x08, 0x00, 0x00, 0x00, 0x10, 0x00, 0x00, 0x00,
  0x28, 0x00, 0x00, 0x00, 0x00, 0x00, 0x06, 0x00, 0x08, 0x00, 0x04, 0x00,
  0x06, 0x00, 0x00, 0x00, 0x04, 0x00, 0x00, 0x00, 0x01, 0x00, 0x00, 0x00,
  0xeb, 0x03, 0x00, 0x00, 0x00, 0x00, 0x0a, 0x00, 0x10, 0x00, 0x0c, 0x00,
  0x08, 0x00, 0x04, 0x00, 0x0a, 0x00, 0x00, 0x00, 0x02, 0x00, 0x00, 0x00,
  0x02, 0x00, 0x00, 0x00, 0x04, 0x00, 0x00, 0x00, 0x06, 0x00, 0x00, 0x00,
  0x32, 0x2e, 0x31, 0x34, 0x2e, 0x30, 0x00, 0x00, 0x16, 0xeb, 0xff, 0xff,
  0x04, 0x00, 0x00, 0x00, 0x10, 0x00, 0x00, 0x00, 0x31, 0x2e, 0x31, 0x34,
  0x2e, 0x30, 0x00, 0x00, 0x00, 0x00, 0x00, 0x00, 0x00, 0x00, 0x00, 0x00,
  0x9c, 0xea, 0xff, 0xff, 0xa0, 0xea, 0xff, 0xff, 0xa4, 0xea, 0xff, 0xff,
  0xa8, 0xea, 0xff, 0xff, 0x42, 0xeb, 0xff, 0xff, 0x04, 0x00, 0x00, 0x00,
  0x40, 0x00, 0x00, 0x00, 0xad, 0xa4, 0xeb, 0x43, 0x71, 0x88, 0x4a, 0x8a,
  0x2e, 0x69, 0xb9, 0xeb, 0x7f, 0x33, 0x48, 0x44, 0x5e, 0x42, 0x46, 0xbf,
  0x93, 0x41, 0x41, 0x6d, 0xc5, 0x5a, 0xdb, 0x09, 0xb3, 0x49, 0x30, 0xdb,
  0x72, 0x91, 0xd5, 0xdb, 0x1b, 0xaa, 0x35, 0xc3, 0x8e, 0x7b, 0xdb, 0x51,
  0x92, 0xd1, 0xae, 0x5b, 0x73, 0x30, 0x20, 0x71, 0x34, 0x3c, 0x35, 0x11,
  0xcd, 0x59, 0x45, 0xa0, 0x48, 0x76, 0xfc, 0x5e, 0x8e, 0xeb, 0xff, 0xff,
  0x04, 0x00, 0x00, 0x00, 0x00, 0x01, 0x00, 0x00, 0x00, 0x00, 0x00, 0x00,
  0x00, 0x00, 0x00, 0x00, 0x00, 0x00, 0x00, 0x00, 0x9c, 0xff, 0xff, 0xff,
  0x64, 0x00, 0x00, 0x00, 0x00, 0x00, 0x00, 0x00, 0x9c, 0xff, 0xff, 0xff,
  0x00, 0x00, 0x00, 0x00, 0x9d, 0xff, 0xff, 0xff, 0x64, 0x00, 0x00, 0x00,
  0x00, 0x00, 0x00, 0x00, 0x00, 0x00, 0x00, 0x00, 0x64, 0x00, 0x00, 0x00,
  0x9c, 0xff, 0xff, 0xff, 0x9c, 0xff, 0xff, 0xff, 0x63, 0x00, 0x00, 0x00,
  0x9c, 0xff, 0xff, 0xff, 0x9c, 0xff, 0xff, 0xff, 0x64, 0x00, 0x00, 0x00,
  0x00, 0x00, 0x00, 0x00, 0x00, 0x00, 0x00, 0x00, 0x9c, 0xff, 0xff, 0xff,
  0x9c, 0xff, 0xff, 0xff, 0x9c, 0xff, 0xff, 0xff, 0x00, 0x00, 0x00, 0x00,
  0x9c, 0xff, 0xff, 0xff, 0x00, 0x00, 0x00, 0x00, 0x64, 0x00, 0x00, 0x00,
  0x00, 0x00, 0x00, 0x00, 0x64, 0x00, 0x00, 0x00, 0x64, 0x00, 0x00, 0x00,
  0x00, 0x00, 0x00, 0x00, 0x64, 0x00, 0x00, 0x00, 0x00, 0x00, 0x00, 0x00,
  0x00, 0x00, 0x00, 0x00, 0x00, 0x00, 0x00, 0x00, 0x9c, 0xff, 0xff, 0xff,
  0x00, 0x00, 0x00, 0x00, 0x64, 0x00, 0x00, 0x00, 0x00, 0x00, 0x00, 0x00,
  0x00, 0x00, 0x00, 0x00, 0x64, 0x00, 0x00, 0x00, 0x00, 0x00, 0x00, 0x00,
  0xa1, 0xff, 0xff, 0xff, 0x00, 0x00, 0x00, 0x00, 0x00, 0x00, 0x00, 0x00,
  0x00, 0x00, 0x00, 0x00, 0x9c, 0xff, 0xff, 0xff, 0x9d, 0xff, 0xff, 0xff,
  0x64, 0x00, 0x00, 0x00, 0x64, 0x00, 0x00, 0x00, 0x63, 0x00, 0x00, 0x00,
  0x63, 0x00, 0x00, 0x00, 0x64, 0x00, 0x00, 0x00, 0x9c, 0xff, 0xff, 0xff,
  0x9c, 0xff, 0xff, 0xff, 0x00, 0x00, 0x00, 0x00, 0x56, 0x00, 0x00, 0x00,
  0x9c, 0xff, 0xff, 0xff, 0x00, 0x00, 0x00, 0x00, 0x9c, 0xff, 0xff, 0xff,
  0x9c, 0xff, 0xff, 0xff, 0x00, 0x00, 0x00, 0x00, 0x64, 0x00, 0x00, 0x00,
  0x9a, 0xec, 0xff, 0xff, 0x04, 0x00, 0x00, 0x00, 0x00, 0x10, 0x00, 0x00,
  0xaa, 0xa5, 0xf5, 0x79, 0x36, 0x0d, 0x06, 0xea, 0xf9, 0x17, 0x3c, 0x89,
  0xbf, 0x55, 0xb1, 0x19, 0xdf, 0xb3, 0x21, 0x4a, 0x3e, 0xe7, 0x8b, 0x27,
  0x2f, 0xb9, 0x1d, 0xb0, 0xe0, 0x17, 0xee, 0x5d, 0xda, 0x94, 0x36, 0xf8,
  0x78, 0x87, 0x1c, 0x3d, 0xe0, 0xf0, 0x5a, 0x54, 0xb8, 0xf2, 0x32, 0xfd,
  0xde, 0x02, 0x25, 0xcf, 0xbb, 0xe6, 0x56, 0x3e, 0xde, 0x40, 0x7d, 0xbf,
  0x02, 0x25, 0xfa, 0x1d, 0x58, 0xf5, 0xab, 0xa5, 0x63, 0xda, 0x34, 0x2c,
  0x33, 0x90, 0x56, 0x37, 0x53, 0x67, 0x77, 0x49, 0x69, 0x52, 0xbd, 0x38,
  0x91, 0x2d, 0x0f, 0x8d, 0x5a, 0x83, 0x96, 0x27, 0x64, 0x35, 0x0b, 0xa2,
  0xfd, 0x1c, 0x72, 0x7a, 0x37, 0x3f, 0x71, 0xf6, 0x87, 0x9b, 0xb1, 0x37,
  0x0d, 0x2e, 0xce, 0x6b, 0x56, 0xa5, 0x0b, 0x10, 0xf3, 0xee, 0x42, 0xfb,
  0x30, 0xca, 0x0b, 0x5d, 0x3e, 0x95, 0xdb, 0x10, 0x5d, 0x41, 0x23, 0xc6,
  0x5b, 0x59, 0xab, 0x98, 0x6b, 0x19, 0x28, 0xa9, 0xd3, 0x0f, 0x17, 0xc5,
  0xcd, 0xbe, 0x9d, 0x75, 0xf9, 0x3a, 0xb2, 0xc2, 0x8c, 0xde, 0xe9, 0x6d,
  0x64, 0x2a, 0xef, 0xfa, 0xf7, 0x71, 0xb7, 0xb7, 0xd3, 0xcf, 0xf8, 0x38,
  0x2a, 0x59, 0x73, 0x6a, 0x6b, 0x3a, 0x23, 0x5e, 0x05, 0x2f, 0x35, 0x87,
  0x26, 0x25, 0x73, 0x1a, 0x2a, 0xe0, 0xeb, 0x41, 0x4f, 0xb3, 0xfa, 0xed,
  0xc0, 0x01, 0xe9, 0xdc, 0x69, 0xae, 0x50, 0x04, 0x1a, 0x19, 0xe0, 0xa6,
  0xb4, 0xc2, 0x5c, 0x87, 0xaf, 0x4f, 0xdf, 0xca, 0x39, 0x6b, 0xdd, 0x78,
  0xbd, 0xf5, 0xa0, 0xe8, 0xa7, 0xd4, 0xa5, 0x5d, 0x16, 0x86, 0x0b, 0xfb,
  0x8d, 0x9c, 0x4b, 0x5d, 0xbf, 0x73, 0x47, 0x90, 0xaa, 0xd2, 0x29, 0xef,
  0x85, 0xf5, 0x8b, 0x4b, 0xad, 0xad, 0xcc, 0xc3, 0x18, 0x78, 0xdb, 0x6c,
  0x51, 0xa7, 0x41, 0xa3, 0x4f, 0xaf, 0x3f, 0xdf, 0xd6, 0xcb, 0x2e, 0xd2,
  0x27, 0x26, 0x0e, 0xb9, 0x76, 0x65, 0x8b, 0x9d, 0xb3, 0x71, 0x5d, 0xef,
  0xcf, 0x66, 0x37, 0xfe, 0x04, 0x2f, 0xd1, 0x0c, 0xdc, 0x8f, 0x8c, 0xdd,
  0x52, 0xf3, 0x5b, 0x6e, 0x02, 0x2c, 0x0e, 0x64, 0x44, 0xb2, 0xfe, 0x2c,
  0x60, 0x3a, 0x56, 0x4f, 0x81, 0xcb, 0x91, 0xd8, 0xc2, 0xbe, 0x4f, 0xcf,
  0x19, 0x01, 0x77, 0x23, 0xaa, 0xcf, 0xa1, 0x2f, 0x95, 0x68, 0x5f, 0xa4,
  0x1f, 0x46, 0x64, 0x07, 0xb3, 0x7a, 0xbc, 0x6c, 0x51, 0x06, 0xdc, 0x5c,
  0xb1, 0x7e, 0xbd, 0x0f, 0x1e, 0x2d, 0xdd, 0xf3, 0xe2, 0x8c, 0x54, 0x6e,
  0x5c, 0x7a, 0x13, 0x9c, 0x2a, 0x67, 0xf0, 0x0f, 0x0a, 0x0b, 0xc4, 0xa5,
  0xaf, 0x96, 0x89, 0x5c, 0xd6, 0xd8, 0xcd, 0x25, 0x19, 0x72, 0x55, 0x9d,
  0x20, 0x99, 0xe8, 0x68, 0xdd, 0x1a, 0x5d, 0xa5, 0x6f, 0x91, 0xe2, 0x6d,
  0xda, 0xc9, 0xeb, 0x3f, 0xa8, 0x85, 0xf8, 0x23, 0xe8, 0xbb, 0x48, 0xac,
  0xd3, 0x94, 0xac, 0xd2, 0xdd, 0x37, 0x23, 0x4d, 0x61, 0xb5, 0x42, 0x63,
  0x43, 0xb1, 0x07, 0xd2, 0x16, 0x08, 0x56, 0x50, 0xdc, 0xdd, 0x65, 0xf2,
  0x71, 0x55, 0x01, 0xf4, 0xb7, 0x24, 0x3f, 0xbb, 0x5d, 0xda, 0xe0, 0x88,
  0xa8, 0x62, 0x4c, 0xcc, 0x44, 0x0c, 0x85, 0xea, 0x58, 0x60, 0xdc, 0x25,
  0x67, 0xe9, 0x55, 0x57, 0x93, 0x90, 0x86, 0x6f, 0xef, 0x33, 0xac, 0x5b,
  0x3d, 0x9f, 0xfa, 0xa7, 0x58, 0xae, 0xc3, 0x55, 0xaf, 0x8a, 0xb2, 0x1f,
  0x23, 0x5b, 0x43, 0xf5, 0x3a, 0x33, 0xe3, 0x5e, 0x2f, 0x98, 0xb4, 0x29,
  0xde, 0xd0, 0xa9, 0x92, 0x87, 0x36, 0x30, 0x36, 0xb0, 0x8d, 0xb4, 0x08,
  0x6b, 0x70, 0xba, 0xea, 0xf0, 0xaf, 0x8d, 0x98, 0x9c, 0xff, 0xbc, 0x47,
  0x8d, 0x9f, 0x08, 0x29, 0xd4, 0xda, 0x71, 0x2f, 0x10, 0x8f, 0xbf, 0x5c,
  0x4c, 0x30, 0x88, 0x3c, 0xc4, 0xb7, 0x03, 0x02, 0xa9, 0x74, 0x8e, 0x42,
  0xdc, 0x47, 0xf4, 0xa2, 0x34, 0xc0, 0x85, 0xd1, 0x01, 0xeb, 0xd2, 0x6c,
  0x3e, 0xca, 0x18, 0x4b, 0x4f, 0x9c, 0x0d, 0x4f, 0x5e, 0xf2, 0x2a, 0x44,
  0x3f, 0xd2, 0x61, 0xad, 0x6f, 0xb1, 0x77, 0xb1, 0xee, 0xb6, 0x36, 0xcc,
  0xaf, 0x1d, 0x58, 0x72, 0xe5, 0x9d, 0xdc, 0x0b, 0xa6, 0xd2, 0xa1, 0x3e,
  0xc0, 0x4c, 0xcf, 0xb7, 0x20, 0x7b, 0x40, 0xd9, 0x6a, 0xd6, 0x9e, 0x76,
  0xcd, 0xf7, 0x45, 0xbc, 0x0d, 0xf5, 0xa0, 0x52, 0xd8, 0x53, 0xa6, 0x65,
  0x9a, 0x8d, 0xad, 0x74, 0xef, 0xff, 0x35, 0x0a, 0xf7, 0x7b, 0x4f, 0x97,
  0x84, 0x08, 0x25, 0xbd, 0x01, 0xd4, 0x71, 0x75, 0x23, 0x61, 0xb8, 0x4e,
  0xcc, 0x5b, 0x4f, 0x29, 0x0e, 0x05, 0x08, 0x13, 0xc8, 0x3c, 0x8f, 0xb1,
  0x3f, 0xa5, 0x69, 0xb9, 0xb1, 0x91, 0x37, 0x52, 0xfd, 0x1b, 0x19, 0x85,
  0xac, 0x5d, 0xba, 0x94, 0x5c, 0x89, 0x9a, 0x1f, 0x4e, 0xac, 0x60, 0x2e,
  0x24, 0x5c, 0x49, 0xdc, 0x59, 0xf9, 0x50, 0xf6, 0x27, 0xa1, 0x18, 0xd5,
  0x9b, 0x9b, 0x36, 0x2c, 0x67, 0x55, 0x26, 0x05, 0xbb, 0x58, 0x6b, 0x33,
  0x88, 0x75, 0x35, 0x2d, 0x85, 0xf6, 0x54, 0xd9, 0x97, 0x03, 0xe4, 0x54,
  0x1a, 0xc3, 0xf3, 0x79, 0x0a, 0xab, 0xbd, 0xd2, 0x3b, 0x70, 0xc1, 0x2c,
  0x6d, 0x04, 0x13, 0x6e, 0x78, 0xa5, 0x61, 0xf9, 0x55, 0xad, 0x06, 0xe3,
  0x07, 0x53, 0xc0, 0xca, 0xe1, 0x54, 0xf5, 0x62, 0x48, 0x0d, 0xa5, 0xef,
  0x38, 0xce, 0x70, 0x58, 0x64, 0x4f, 0xa9, 0x44, 0x35, 0x77, 0x7d, 0x65,
  0xab, 0x16, 0x5e, 0xc5, 0x51, 0xd1, 0x36, 0x95, 0x4d, 0x5c, 0xe0, 0x4b,
  0xeb, 0x0e, 0x72, 0xdf, 0x12, 0x5f, 0x9e, 0xca, 0xa1, 0x0d, 0x22, 0x2d,
  0xca, 0xa3, 0x9a, 0x24, 0xb6, 0x6d, 0x92, 0xe1, 0xc9, 0xd8, 0xb0, 0x10,
  0x0f, 0xf9, 0x47, 0x69, 0x61, 0x76, 0xf4, 0x14, 0xa9, 0x09, 0x61, 0x1e,
  0x24, 0xdf, 0xde, 0xed, 0xd6, 0xd5, 0xfa, 0x3d, 0x5a, 0x3a, 0xbd, 0xd1,
  0x2e, 0x77, 0xb4, 0xb9, 0x20, 0x2b, 0x49, 0xdc, 0xfa, 0xc1, 0xd7, 0x9b,
  0x40, 0x08, 0x3b, 0xa3, 0x59, 0xec, 0x2d, 0xa8, 0x42, 0x4a, 0x13, 0x76,
  0x66, 0x2c, 0xb6, 0x03, 0x46, 0x8e, 0x5f, 0x73, 0xb3, 0x86, 0x21, 0x97,
  0x88, 0x9b, 0x49, 0xf2, 0xa4, 0x72, 0xc1, 0x19, 0x76, 0x68, 0xa8, 0x89,
  0x99, 0x1c, 0x50, 0x69, 0xe4, 0x6b, 0xe3, 0xdc, 0x7a, 0x44, 0x23, 0x47,
  0xa5, 0x85, 0xed, 0x17, 0x60, 0x3d, 0xd8, 0xa4, 0x28, 0xfa, 0x69, 0x29,
  0x91, 0x67, 0xb4, 0x17, 0x33, 0x21, 0x8d, 0x67, 0xcc, 0xba, 0xf9, 0x04,
  0x48, 0xc5, 0x11, 0xd5, 0xfd, 0x70, 0x52, 0xed, 0x9d, 0x53, 0x8f, 0xf5,
  0xc4, 0xd7, 0x89, 0x1f, 0xc1, 0x57, 0xd4, 0x16, 0x76, 0x59, 0x3d, 0xa2,
  0xf0, 0x6a, 0x5b, 0xbe, 0xe5, 0x11, 0xfd, 0x1f, 0x35, 0x32, 0x06, 0x43,
  0xdd, 0x8e, 0x34, 0x1c, 0xe9, 0xc6, 0x8c, 0x16, 0x45, 0xad, 0x5d, 0xd7,
  0xf0, 0x2f, 0x36, 0x7f, 0xe7, 0x9b, 0x0d, 0x24, 0x97, 0x55, 0x4a, 0x43,
  0x62, 0x44, 0xd8, 0x18, 0xcd, 0xc8, 0x45, 0xcc, 0x78, 0x0e, 0x5d, 0xc5,
  0x22, 0x98, 0x9a, 0xe1, 0x2c, 0x94, 0xb4, 0xab, 0xf7, 0xa9, 0x8a, 0xd9,
  0xc7, 0xf0, 0x8b, 0xad, 0x47, 0xaf, 0xd7, 0xa0, 0xfa, 0x9c, 0x00, 0x4e,
  0x75, 0xcd, 0x56, 0xd8, 0x34, 0x69, 0xbc, 0x92, 0x31, 0xfc, 0x0a, 0x9a,
  0x76, 0x07, 0x9b, 0x6c, 0xc4, 0xd1, 0x1d, 0x37, 0x99, 0xcc, 0x46, 0x56,
  0xfd, 0xca, 0xb7, 0xc1, 0x18, 0x26, 0xc6, 0xe1, 0xb6, 0x15, 0xb1, 0x0e,
  0x49, 0x12, 0x2f, 0xce, 0xf4, 0x16, 0x8c, 0x44, 0xee, 0x1c, 0xe4, 0x92,
  0xfb, 0xd5, 0xa1, 0x6d, 0x45, 0x30, 0x13, 0xd7, 0x0e, 0x05, 0x08, 0x0c,
  0xf3, 0x8e, 0x8b, 0x23, 0x42, 0x0f, 0xee, 0x50, 0x6a, 0x36, 0x38, 0x1c,
  0x9d, 0xab, 0x90, 0xc4, 0xbf, 0x26, 0xbe, 0x27, 0x95, 0xc1, 0x20, 0x06,
  0x92, 0xa7, 0xc6, 0xf8, 0x48, 0x09, 0xa1, 0x9a, 0x98, 0x2d, 0x1d, 0x14,
  0x54, 0x59, 0x64, 0x14, 0x56, 0xbd, 0x52, 0x10, 0xe6, 0xe0, 0x53, 0x52,
  0xc6, 0xdb, 0x3f, 0x93, 0x1b, 0xe4, 0x21, 0x65, 0xac, 0xfe, 0x6c, 0x13,
  0x18, 0x16, 0x2c, 0x54, 0xb3, 0xe7, 0xf7, 0x34, 0xfa, 0xef, 0xcc, 0x2c,
  0xd1, 0x31, 0x9d, 0xd0, 0x76, 0x4c, 0x4f, 0x1c, 0xac, 0x42, 0x63, 0x33,
  0xe9, 0xff, 0xe7, 0xd4, 0x76, 0x34, 0x50, 0x91, 0xdd, 0x3b, 0x88, 0x61,
  0x64, 0xeb, 0x94, 0x4d, 0x78, 0xf0, 0xee, 0xec, 0x00, 0x69, 0x92, 0x1e,
  0xd2, 0x5a, 0x27, 0xfe, 0x5b, 0x67, 0x8c, 0x4c, 0x64, 0x27, 0x3b, 0x55,
  0x33, 0x75, 0x48, 0x81, 0xe2, 0xe3, 0xf9, 0x8c, 0xc3, 0x6e, 0x28, 0x39,
  0x32, 0x1f, 0xb5, 0xed, 0x25, 0x91, 0x26, 0xc1, 0x28, 0xce, 0x30, 0xf2,
  0xc3, 0xcc, 0x9a, 0xfc, 0xa4, 0x6e, 0xa6, 0x36, 0x9a, 0xdb, 0x6b, 0x32,
  0x84, 0x93, 0x8b, 0x4e, 0xe4, 0x30, 0xe7, 0xf9, 0x4c, 0x8c, 0x14, 0x4e,
  0x5a, 0x18, 0x54, 0x91, 0xa7, 0x47, 0x04, 0xd5, 0xe9, 0x4e, 0xd5, 0xa1,
  0x8f, 0x47, 0xcb, 0x34, 0x7a, 0xfe, 0x5a, 0x75, 0x96, 0xac, 0x76, 0x24,
  0x47, 0xcc, 0x22, 0x0e, 0x13, 0xf4, 0x08, 0x33, 0x0c, 0x1f, 0x76, 0x6a,
  0x1c, 0x41, 0x79, 0xb5, 0x44, 0xb7, 0x3c, 0xf4, 0x5f, 0x72, 0xa4, 0xd7,
  0x46, 0x71, 0x70, 0x00, 0xd4, 0x0b, 0x0f, 0xac, 0xf2, 0xae, 0x17, 0x20,
  0x3b, 0x79, 0x49, 0xdd, 0x0c, 0x56, 0xb5, 0x05, 0x0e, 0x9c, 0x7a, 0xaf,
  0xbe, 0x02, 0xd9, 0x16, 0x43, 0xd6, 0x3d, 0x4e, 0xaa, 0x1f, 0x32, 0xd8,
  0x28, 0x57, 0xcd, 0x3c, 0x5f, 0xd1, 0xff, 0x1e, 0xbc, 0x06, 0x6c, 0x60,
  0xcb, 0x5a, 0x1f, 0xda, 0xb5, 0x70, 0x0e, 0x9b, 0x6b, 0xc8, 0x2f, 0x1a,
  0x42, 0xfc, 0x6a, 0x45, 0x1e, 0xfa, 0xac, 0xb7, 0x84, 0x44, 0x3f, 0xda,
  0x14, 0xaa, 0x8d, 0xf4, 0x89, 0x4c, 0x25, 0x6c, 0x9d, 0x0a, 0x64, 0x38,
  0x95, 0x00, 0x53, 0x3f, 0xc5, 0x0e, 0x89, 0xeb, 0x57, 0x41, 0xb5, 0x77,
  0xd9, 0xd7, 0xbf, 0xa7, 0xc1, 0x3e, 0xca, 0x27, 0x63, 0xf6, 0x4a, 0xde,
  0x1a, 0x24, 0x2e, 0xe3, 0xc1, 0x14, 0x57, 0xe6, 0xa9, 0x8d, 0xda, 0x1b,
  0x5a, 0x1a, 0xdc, 0x98, 0x1b, 0xdf, 0x08, 0xf8, 0xee, 0xd5, 0xcb, 0xe8,
  0xb7, 0xb6, 0xdf, 0x1a, 0xe3, 0x5c, 0xaa, 0xc3, 0x23, 0x64, 0x66, 0xd8,
  0xaa, 0x58, 0x8f, 0x3d, 0xec, 0xfe, 0xfe, 0x6a, 0xfa, 0x19, 0xce, 0x12,
  0x29, 0x00, 0x8f, 0x24, 0x1f, 0x55, 0x3d, 0xa0, 0x8f, 0xcf, 0xc8, 0x31,
  0xcf, 0x6f, 0x6f, 0x92, 0x6c, 0x71, 0x0b, 0xad, 0x5f, 0x58, 0xb0, 0x2a,
  0xf7, 0xde, 0x9e, 0xc4, 0x58, 0x5b, 0xb0, 0x4b, 0xb5, 0x41, 0xc3, 0xf8,
  0x32, 0x6c, 0x94, 0x51, 0x65, 0x0b, 0x07, 0x20, 0xc5, 0x14, 0x98, 0x42,
  0xbf, 0x1a, 0x0f, 0x96, 0xb6, 0xb9, 0x24, 0x1d, 0xe3, 0xdb, 0x62, 0xac,
  0x5b, 0x0e, 0x56, 0x4e, 0xc3, 0x62, 0xf7, 0x10, 0x45, 0xb9, 0x98, 0x5f,
  0x36, 0x4f, 0x6b, 0x22, 0x5a, 0x15, 0xf1, 0xeb, 0xf3, 0x13, 0x52, 0x29,
  0xd7, 0xa1, 0xc1, 0x97, 0xee, 0xa2, 0x1a, 0xc7, 0x9b, 0x5a, 0x4e, 0x13,
  0xa0, 0x19, 0xd4, 0x24, 0xca, 0x38, 0xe2, 0xd9, 0x4c, 0x0f, 0xe9, 0xe2,
  0x00, 0x33, 0x63, 0x32, 0xc6, 0x5f, 0xe9, 0xab, 0x2d, 0x9d, 0x17, 0x6f,
  0xee, 0x91, 0x48, 0x52, 0x14, 0xff, 0x19, 0xed, 0x00, 0xac, 0xcf, 0x60,
  0xcb, 0xea, 0x9f, 0xb7, 0x63, 0x91, 0xce, 0x73, 0xa0, 0xda, 0x74, 0xf8,
  0xeb, 0xa2, 0xc9, 0xc7, 0xc9, 0x24, 0xfd, 0x15, 0xb4, 0x35, 0xb5, 0xbc,
  0x61, 0x13, 0x02, 0x72, 0x30, 0xf4, 0x20, 0x04, 0xaa, 0x65, 0x42, 0x4b,
  0xfa, 0x86, 0xc0, 0xdf, 0x67, 0xe0, 0xc9, 0xb5, 0xf6, 0x2a, 0x7a, 0xe1,
  0x68, 0xfa, 0x64, 0xcd, 0xb5, 0x23, 0x39, 0xd8, 0xde, 0xf1, 0x78, 0xed,
  0xf3, 0xb3, 0x50, 0x21, 0xb3, 0x99, 0x5c, 0x60, 0xa2, 0x8e, 0x1b, 0x00,
  0x55, 0x86, 0x04, 0x1f, 0x5a, 0x7b, 0x6d, 0xec, 0x87, 0xcb, 0x78, 0x98,
  0x3a, 0xc3, 0xa7, 0x5f, 0x5d, 0x10, 0x2a, 0xa0, 0x36, 0xe5, 0x00, 0x19,
  0x49, 0xac, 0x38, 0x89, 0xb6, 0xf0, 0x17, 0x42, 0xca, 0xed, 0x10, 0xf9,
  0xcf, 0x24, 0xdd, 0xa3, 0xc3, 0x58, 0xf3, 0xd9, 0x6a, 0xd0, 0xa8, 0x6f,
  0x3d, 0xa6, 0x88, 0xd2, 0x69, 0xa1, 0x85, 0xbd, 0x5a, 0xfe, 0x70, 0xd6,
  0x59, 0xd8, 0x40, 0xec, 0xba, 0x10, 0x5e, 0x44, 0x59, 0xd8, 0xe0, 0xf0,
  0x45, 0xad, 0x18, 0xac, 0x29, 0x87, 0x65, 0xea, 0xb7, 0x48, 0x8a, 0xc3,
  0x3f, 0x10, 0x3a, 0xe7, 0x6e, 0x5a, 0x52, 0x54, 0xee, 0x22, 0x91, 0x03,
  0x1c, 0x0a, 0xc4, 0x53, 0x07, 0x7c, 0x3d, 0x4c, 0x0b, 0x2b, 0x13, 0x3e,
  0x7a, 0xc1, 0x19, 0xe7, 0x6d, 0xc6, 0x07, 0xdd, 0x4c, 0xc7, 0xb0, 0x1a,
  0x34, 0x36, 0xd9, 0xb0, 0x20, 0x5f, 0xf8, 0x98, 0xe6, 0x77, 0x9f, 0xa6,
  0xec, 0xe4, 0xbf, 0xf5, 0xfc, 0xfd, 0x3f, 0x54, 0x47, 0x05, 0x48, 0xa1,
  0xf8, 0xb2, 0xcb, 0x76, 0xcd, 0x1f, 0x5d, 0x44, 0xc6, 0x62, 0xe5, 0xe8,
  0x95, 0x74, 0x8b, 0x11, 0x93, 0x21, 0x91, 0xd7, 0x1d, 0xc2, 0x55, 0x3a,
  0xf2, 0xd9, 0x5a, 0xe1, 0x1a, 0x19, 0xc4, 0x5f, 0xfe, 0x31, 0x8a, 0xdc,
  0xeb, 0xdc, 0xaa, 0x8e, 0xea, 0x6a, 0x5c, 0x8e, 0xa5, 0x55, 0x33, 0x6e,
  0x90, 0x10, 0xbc, 0xd8, 0x88, 0x6c, 0xdf, 0xe9, 0xbb, 0x8b, 0x40, 0xd1,
  0x4f, 0x49, 0xea, 0xa2, 0x6d, 0x87, 0x4b, 0x3f, 0x95, 0x93, 0x62, 0x48,
  0x76, 0xd3, 0x8b, 0xf0, 0xda, 0xd3, 0x33, 0x28, 0x74, 0xcb, 0x44, 0x4e,
  0xd7, 0x20, 0x2e, 0x04, 0x2c, 0x0e, 0xc5, 0xe2, 0xd2, 0x0c, 0x8d, 0x3d,
  0x75, 0x0c, 0x51, 0x68, 0x19, 0x21, 0x0d, 0x79, 0xf9, 0x60, 0x9c, 0xbb,
  0x98, 0x09, 0x7c, 0x98, 0xfe, 0x7e, 0xec, 0x2d, 0xde, 0x57, 0xf4, 0x63,
  0xba, 0xc0, 0x7f, 0x99, 0xce, 0x6c, 0xf6, 0x60, 0xd9, 0x9e, 0x43, 0xe8,
  0xe6, 0x8e, 0x57, 0x21, 0xb4, 0xb1, 0xb1, 0x71, 0x1a, 0x2c, 0x5e, 0x34,
  0x2d, 0xca, 0xf1, 0x3b, 0xa4, 0x6e, 0xb1, 0x70, 0xe7, 0x21, 0x3f, 0x7b,
  0x3b, 0x7b, 0xe4, 0xc0, 0x85, 0xf2, 0xbe, 0x4c, 0xb7, 0xec, 0x0f, 0x71,
  0xc7, 0x05, 0xfb, 0x38, 0x33, 0x11, 0xfd, 0xe4, 0x9c, 0x77, 0x46, 0x40,
  0x2a, 0x4f, 0x03, 0xbc, 0xdc, 0xb9, 0x56, 0x69, 0x96, 0xdb, 0x2f, 0xe7,
  0xa2, 0x30, 0xc4, 0x64, 0xe2, 0x66, 0x4d, 0xd8, 0x93, 0x22, 0x8d, 0x87,
  0xdd, 0x99, 0x05, 0x6e, 0x0e, 0x20, 0xc0, 0x36, 0x25, 0x87, 0xf3, 0x58,
  0x5c, 0x92, 0x70, 0xaf, 0x64, 0xc5, 0x9e, 0xfd, 0x3e, 0xe9, 0xb4, 0x2c,
  0x3f, 0x3e, 0x63, 0x8f, 0x43, 0xc4, 0x88, 0x30, 0x42, 0x68, 0x43, 0xb9,
  0x5d, 0x4f, 0x69, 0xcb, 0x57, 0x2b, 0x5f, 0xe2, 0x36, 0x16, 0x68, 0x33,
  0x48, 0x17, 0x5c, 0x41, 0x01, 0x8f, 0xc7, 0x06, 0x87, 0x04, 0x5b, 0xd2,
  0xdb, 0x6f, 0x19, 0x6d, 0x3d, 0x69, 0x9f, 0x63, 0xc0, 0xd1, 0x78, 0x21,
  0x99, 0x42, 0xef, 0xc3, 0x7e, 0x10, 0xc6, 0x65, 0x9a, 0x51, 0x72, 0x76,
  0xc4, 0xd4, 0xb7, 0xec, 0x99, 0xa9, 0xe5, 0xeb, 0xcd, 0xfa, 0x8c, 0x56,
  0x01, 0x6e, 0xeb, 0xde, 0x55, 0xb9, 0x48, 0xc3, 0x0b, 0x33, 0xba, 0x29,
  0xa6, 0x0d, 0xf7, 0x3e, 0x86, 0x4a, 0x45, 0xac, 0x3e, 0xb1, 0x06, 0xb4,
  0xbd, 0xf4, 0xca, 0xc5, 0x64, 0x3a, 0x53, 0xb2, 0xcc, 0xbd, 0x45, 0x9a,
  0x2d, 0xe9, 0x57, 0x9b, 0xb2, 0x0f, 0x87, 0xa0, 0xe1, 0x30, 0x5c, 0x63,
  0xcd, 0x4d, 0xe8, 0x14, 0x32, 0xf9, 0x38, 0xbb, 0x13, 0xd1, 0x98, 0x9a,
  0x18, 0xf9, 0x0a, 0xee, 0x99, 0x3f, 0xa6, 0xbd, 0x5d, 0xb3, 0x29, 0xb0,
  0xe4, 0x40, 0x23, 0x94, 0x08, 0xd7, 0x60, 0xbf, 0xf6, 0x96, 0x68, 0x2d,
  0xd0, 0xb0, 0x4d, 0xfd, 0xc4, 0x54, 0x50, 0xbd, 0xe0, 0x89, 0x58, 0x6a,
  0xd2, 0x5f, 0x4a, 0x90, 0x6d, 0x68, 0xcd, 0x29, 0x6d, 0x94, 0x00, 0x9a,
  0x6c, 0xc7, 0x51, 0xaf, 0x42, 0xa6, 0xde, 0xce, 0xf9, 0x63, 0xd6, 0x9e,
  0x5c, 0xde, 0xde, 0xfc, 0xbb, 0x73, 0xe3, 0xcb, 0x3a, 0xfb, 0x9d, 0x5b,
  0x8b, 0x34, 0x25, 0x08, 0x71, 0x6b, 0x9a, 0x01, 0x13, 0xe3, 0x95, 0x16,
  0xfc, 0xac, 0xaa, 0x17, 0x3e, 0xe2, 0x9a, 0x2b, 0x9d, 0x03, 0x58, 0xe3,
  0xee, 0x69, 0x18, 0xec, 0x14, 0xe0, 0xe0, 0x17, 0x8f, 0x88, 0x68, 0x05,
  0x8a, 0x26, 0x5a, 0xf6, 0x2c, 0x6e, 0xce, 0x1a, 0x0e, 0x9a, 0x62, 0xa5,
  0x43, 0xb9, 0xad, 0x09, 0x0a, 0xf1, 0x99, 0x14, 0xd9, 0xb6, 0xd6, 0xee,
  0x2a, 0x0e, 0x53, 0x1d, 0x0b, 0xc7, 0xdb, 0x4a, 0x20, 0x4b, 0x8a, 0x8e,
  0xc3, 0x26, 0x06, 0x7b, 0x86, 0x9b, 0x9c, 0xec, 0x79, 0xc5, 0x02, 0xab,
  0x16, 0x6a, 0xee, 0x06, 0xea, 0xb6, 0x20, 0xe5, 0x6e, 0xdb, 0xa3, 0x1e,
  0xb8, 0xbd, 0x27, 0xe4, 0x45, 0xa0, 0xee, 0xf6, 0x6e, 0xa9, 0x5d, 0xd0,
  0x9b, 0x30, 0x01, 0x58, 0xe9, 0xac, 0x0a, 0x5a, 0xbd, 0x88, 0x95, 0xb1,
  0xa4, 0x52, 0x1e, 0x77, 0x5a, 0x59, 0xa0, 0xc3, 0x04, 0xf2, 0xc7, 0x74,
  0x1f, 0x53, 0x1d, 0x11, 0xcf, 0x8f, 0xa1, 0xa0, 0xa4, 0x78, 0xc0, 0xf3,
  0xc2, 0x50, 0x03, 0x70, 0x32, 0x3a, 0x86, 0x90, 0x98, 0x99, 0xe7, 0x09,
  0x32, 0xf2, 0x83, 0x60, 0x59, 0x8b, 0x86, 0x3f, 0xfe, 0x3b, 0x8f, 0xbd,
  0xb8, 0x09, 0x5a, 0x4c, 0x17, 0x45, 0x48, 0xca, 0x3b, 0x2e, 0x0a, 0x46,
  0xc0, 0x10, 0x4c, 0x52, 0xea, 0xed, 0xbf, 0xa4, 0x2f, 0x1c, 0x39, 0x6b,
  0x1f, 0x10, 0x0e, 0xb4, 0xd9, 0xbf, 0xb1, 0x5f, 0x3c, 0x04, 0xb1, 0x59,
  0xf1, 0x0c, 0xc5, 0xaa, 0xf5, 0x8d, 0xfa, 0x21, 0xaa, 0x2e, 0x45, 0xde,
  0x8c, 0x5f, 0xe1, 0x51, 0x61, 0x1b, 0x3c, 0xb0, 0x53, 0x98, 0x3e, 0xa1,
  0x31, 0x04, 0x3d, 0x55, 0x92, 0x42, 0x77, 0xa1, 0x33, 0xae, 0xb2, 0x69,
  0xc2, 0xac, 0x6f, 0x99, 0x77, 0xe8, 0xce, 0xcb, 0x0a, 0x11, 0x0b, 0x76,
  0x5b, 0xc6, 0x75, 0x8c, 0x58, 0x89, 0x8a, 0x27, 0x38, 0xb9, 0x14, 0x88,
  0x1f, 0x35, 0x36, 0x12, 0xfb, 0xa6, 0xff, 0xfc, 0xd9, 0x88, 0xa0, 0xab,
  0xa3, 0x14, 0x32, 0x5f, 0xd6, 0x1d, 0xe0, 0x62, 0x7d, 0x54, 0xbf, 0x5d,
  0xaa, 0x7e, 0x19, 0xf7, 0x16, 0xf2, 0xa1, 0x34, 0x38, 0x17, 0xc1, 0x6a,
  0x5a, 0x3b, 0xe2, 0x30, 0xd4, 0x98, 0x87, 0x23, 0xbc, 0xf4, 0x3b, 0xb4,
  0xdf, 0x54, 0x69, 0xf5, 0x8e, 0xb2, 0x33, 0xe5, 0xe1, 0x1b, 0x24, 0x28,
  0xe3, 0x85, 0xed, 0xf5, 0x54, 0xbb, 0x21, 0x9b, 0x97, 0xa0, 0xf7, 0xa3,
  0x73, 0x4e, 0xb2, 0x0f, 0x6f, 0x85, 0x74, 0x2f, 0xd0, 0x28, 0xa4, 0xa9,
  0x4e, 0x20, 0xa1, 0x53, 0x49, 0x47, 0x77, 0x6b, 0x4d, 0x25, 0x69, 0x8e,
  0x58, 0x6f, 0x66, 0xf6, 0x66, 0x0d, 0xe3, 0x0f, 0xf0, 0xb9, 0xde, 0x7b,
  0x2c, 0x66, 0x74, 0x0d, 0x55, 0xcf, 0xc2, 0x94, 0x21, 0x10, 0xc3, 0x2a,
  0x68, 0xad, 0xfa, 0x19, 0xa5, 0x4f, 0xc1, 0x50, 0x00, 0x0c, 0xc6, 0x85,
  0xc3, 0xb2, 0x44, 0x02, 0x1e, 0x23, 0xa1, 0x71, 0x1e, 0x74, 0xb2, 0x76,
  0xd3, 0x29, 0xec, 0x34, 0x9c, 0xf4, 0x33, 0x40, 0xe8, 0x68, 0x12, 0xcc,
  0xe2, 0x9c, 0x19, 0xf5, 0xa0, 0xac, 0x86, 0x70, 0xf1, 0x8b, 0xe9, 0x0e,
  0x6f, 0xaa, 0x16, 0xc2, 0x87, 0x95, 0x6f, 0x56, 0x61, 0x1e, 0xd0, 0xb0,
  0x56, 0xb7, 0xf1, 0x6d, 0xb8, 0x89, 0xa9, 0x36, 0x5d, 0xdd, 0x5c, 0x49,
  0x95, 0x00, 0xb0, 0x60, 0x51, 0x31, 0x69, 0xf0, 0xba, 0x61, 0x24, 0xcb,
  0xf5, 0xe1, 0x9e, 0xc8, 0x1f, 0xd6, 0x1d, 0x17, 0x6b, 0x94, 0x1c, 0x20,
  0xe5, 0x6c, 0xc8, 0x59, 0x62, 0xdf, 0x95, 0x4b, 0xd8, 0xb1, 0xc2, 0x04,
  0x4a, 0xca, 0xc1, 0x79, 0xc8, 0x43, 0x62, 0xef, 0x2f, 0xf7, 0x6e, 0x57,
  0x13, 0xa8, 0x09, 0x89, 0x96, 0x67, 0xb3, 0x96, 0x0f, 0x9f, 0xc3, 0xd2,
  0xed, 0x2d, 0x50, 0x86, 0x7b, 0x97, 0x1a, 0x90, 0x43, 0xaa, 0x2a, 0x4e,
  0x8b, 0x71, 0x32, 0x02, 0x0e, 0xf6, 0xf0, 0xf1, 0xce, 0x6d, 0x21, 0x8c,
  0xcb, 0x5a, 0x8b, 0x13, 0x6d, 0xdb, 0xbf, 0xca, 0x86, 0xe7, 0x4f, 0xdb,
  0xfc, 0xd6, 0x60, 0xad, 0x32, 0xd7, 0xb7, 0x45, 0x8d, 0x14, 0xe1, 0x12,
  0x0f, 0x23, 0x74, 0x6c, 0xab, 0x07, 0x3b, 0x4b, 0xb5, 0x35, 0xa9, 0xf1,
  0xe4, 0x1c, 0x8d, 0x0c, 0xd2, 0xdb, 0x25, 0x5c, 0x31, 0x4d, 0xf3, 0x30,
  0xd5, 0xfb, 0xe8, 0x72, 0x09, 0x32, 0x4a, 0xf6, 0xcf, 0xe6, 0xbb, 0x6f,
  0x08, 0x6b, 0x75, 0xfb, 0x29, 0xe3, 0x05, 0xbd, 0xe7, 0x90, 0x70, 0x5b,
  0x51, 0x37, 0xa2, 0x63, 0x54, 0xb4, 0x44, 0x4e, 0xcf, 0xaa, 0x39, 0x7e,
  0x54, 0x88, 0x58, 0xa1, 0x5f, 0x14, 0xb5, 0xbb, 0x6e, 0xa7, 0x3d, 0x12,
  0xa1, 0xbd, 0xcb, 0xd6, 0x95, 0x06, 0x5a, 0xa7, 0x41, 0xf9, 0xda, 0x29,
  0x0d, 0x4c, 0x1b, 0xcb, 0x23, 0x8f, 0x3f, 0x75, 0xab, 0x2e, 0x63, 0x79,
  0xf5, 0x3a, 0x73, 0x3a, 0x67, 0xba, 0xa8, 0x7d, 0x27, 0xf8, 0xf5, 0x3b,
  0x71, 0xd4, 0xdf, 0x7e, 0xee, 0xab, 0xf0, 0x1a, 0xde, 0xd7, 0xcd, 0x94,
  0x48, 0x4f, 0x25, 0xf0, 0xd5, 0x10, 0x10, 0xa0, 0x34, 0x3d, 0xc3, 0x6e,
  0x9f, 0x65, 0xef, 0x0c, 0x1f, 0xb1, 0x6c, 0x56, 0x94, 0x3c, 0x01, 0x7b,
  0xe4, 0x21, 0x42, 0xc8, 0x1b, 0xeb, 0x51, 0x28, 0x32, 0x68, 0xc6, 0xc3,
  0x41, 0x72, 0xa1, 0x4f, 0xb5, 0x41, 0xbe, 0xd1, 0x8d, 0xfe, 0x36, 0x01,
  0x4c, 0x90, 0x90, 0xfe, 0x73, 0xec, 0xd6, 0x7d, 0x06, 0xf0, 0x0b, 0x20,
  0x92, 0xf3, 0x31, 0x06, 0xee, 0xcf, 0x92, 0xad, 0x0d, 0xef, 0xfa, 0x03,
  0x03, 0x73, 0xa3, 0x6a, 0x0f, 0xf7, 0xab, 0xe1, 0x13, 0x91, 0x5c, 0xa3,
  0x72, 0x74, 0x8e, 0xf4, 0x5e, 0xc7, 0x47, 0x0d, 0x9f, 0x90, 0xeb, 0x21,
  0xc8, 0x23, 0xac, 0xc4, 0xca, 0x0a, 0x3e, 0x74, 0xfb, 0x74, 0x2d, 0x5b,
  0xc0, 0x5f, 0x58, 0xea, 0xf5, 0x71, 0x73, 0x9f, 0xb1, 0x92, 0x01, 0x6b,
  0x45, 0xdb, 0x10, 0xe3, 0x19, 0x95, 0xda, 0x6c, 0xc3, 0x38, 0x1a, 0x02,
  0x51, 0x26, 0xa0, 0xa8, 0xda, 0x12, 0x48, 0xe4, 0x33, 0x9d, 0x67, 0x35,
  0xf7, 0xf3, 0x71, 0x9c, 0x6f, 0x42, 0x46, 0x06, 0x67, 0x78, 0x74, 0xaa,
  0xd4, 0x8e, 0x17, 0x12, 0x62, 0x29, 0x03, 0x88, 0x4a, 0x11, 0xe0, 0xe4,
  0x93, 0xdb, 0x02, 0xed, 0xf5, 0x19, 0x7c, 0x8b, 0xee, 0xd4, 0xe1, 0xbc,
  0x90, 0xb8, 0x8c, 0x09, 0x28, 0xc5, 0xce, 0xdc, 0x63, 0x69, 0x27, 0x7a,
  0xcf, 0x88, 0xb7, 0x6f, 0x99, 0xd2, 0xd5, 0x1b, 0x71, 0x4c, 0xd8, 0xba,
  0x00, 0xcc, 0x30, 0xc5, 0x3e, 0x4e, 0x7a, 0x62, 0x57, 0x2f, 0x93, 0x08,
  0xbc, 0x24, 0xd7, 0x58, 0x88, 0x64, 0x92, 0x5b, 0x0b, 0x13, 0xae, 0x71,
  0x03, 0x71, 0xc5, 0x79, 0xd3, 0x48, 0x28, 0xb1, 0xf8, 0x3e, 0xe2, 0x6e,
  0x43, 0x77, 0x31, 0x4c, 0x8e, 0xa3, 0x70, 0xb0, 0x77, 0xe4, 0x9f, 0xdb,
  0x56, 0xe4, 0x29, 0x63, 0x88, 0x4c, 0x4c, 0x48, 0xf7, 0x15, 0xea, 0xcf,
  0x9f, 0xf5, 0x17, 0x35, 0xbe, 0x23, 0x77, 0x2a, 0x2c, 0x2a, 0xe3, 0x58,
  0x2d, 0xb0, 0x78, 0x38, 0x31, 0x5f, 0x54, 0x00, 0xad, 0xb0, 0x40, 0x0e,
  0x47, 0xfd, 0x4b, 0x54, 0xbb, 0xc2, 0x09, 0xb4, 0x4b, 0x6c, 0x86, 0xe7,
  0xa9, 0xf3, 0x21, 0x86, 0x8b, 0x75, 0x4c, 0xd3, 0xa5, 0x9a, 0xdf, 0x2c,
  0x1f, 0x00, 0xa6, 0x76, 0xaf, 0x99, 0x67, 0x32, 0xfc, 0x8d, 0x99, 0xd9,
  0xd4, 0x4f, 0xf2, 0xb4, 0x89, 0x14, 0x57, 0xfa, 0xca, 0xa8, 0xff, 0x24,
  0xec, 0x35, 0xe4, 0xba, 0xa9, 0xef, 0x11, 0x1e, 0x39, 0xe4, 0x55, 0xe0,
  0xfb, 0x1c, 0x0d, 0x66, 0x9c, 0x0d, 0x3b, 0xc8, 0x8f, 0x19, 0xf3, 0x58,
  0x19, 0xac, 0x1a, 0x2a, 0xaf, 0xf5, 0xc4, 0x32, 0xc4, 0xcc, 0xb5, 0x52,
  0xca, 0x1f, 0xc8, 0x9b, 0x3d, 0x09, 0xbe, 0x0f, 0xbe, 0x06, 0x2a, 0x2a,
  0x01, 0x8d, 0x33, 0x62, 0xff, 0xca, 0x5f, 0xef, 0x0e, 0x1c, 0xea, 0x6c,
  0xed, 0x9b, 0x6a, 0x65, 0xd8, 0x00, 0x4c, 0xe3, 0x16, 0xd1, 0xdc, 0x8c,
  0x91, 0x82, 0x5e, 0x23, 0xe8, 0xbd, 0x6c, 0x96, 0x44, 0x3a, 0xf3, 0xf1,
  0x07, 0x47, 0xfb, 0xef, 0xaa, 0xdd, 0x07, 0x2b, 0xac, 0x0e, 0xde, 0x19,
  0x34, 0x3b, 0xf4, 0x22, 0x9c, 0xa5, 0xc6, 0x73, 0xaa, 0x39, 0x54, 0x6c,
  0xae, 0x17, 0xf2, 0xf1, 0xdc, 0x09, 0x97, 0x6e, 0xa0, 0xa9, 0x72, 0x6f,
  0xcf, 0x0b, 0xaa, 0x1b, 0x9c, 0xc2, 0x48, 0x88, 0xa2, 0x3c, 0x5d, 0xf9,
  0xad, 0xdb, 0xb7, 0x8b, 0x13, 0x20, 0x1a, 0xbe, 0x28, 0x98, 0xf6, 0xdb,
  0xf9, 0x74, 0xec, 0x03, 0x8c, 0x56, 0x04, 0x23, 0x56, 0xb2, 0xd6, 0x47,
  0x1c, 0x47, 0x77, 0x10, 0x4c, 0xb4, 0x7b, 0xc4, 0xc5, 0xe9, 0x3d, 0xb2,
  0xcc, 0x14, 0xc7, 0x7b, 0x2d, 0xda, 0x02, 0xdf, 0x9f, 0x0b, 0xbe, 0xfd,
  0x51, 0xf6, 0x99, 0x8f, 0x9b, 0xa5, 0xc4, 0x51, 0xef, 0x1a, 0x2d, 0x90,
  0xa0, 0xf4, 0x50, 0xd7, 0xe6, 0x27, 0x8d, 0x49, 0xe4, 0xb9, 0x31, 0x0a,
  0xe1, 0x68, 0x3b, 0x31, 0xdf, 0x99, 0x2a, 0xdb, 0x60, 0xea, 0xa4, 0x03,
  0x39, 0xdd, 0xae, 0x75, 0x92, 0xc6, 0xf3, 0xba, 0x69, 0xbb, 0x74, 0xde,
  0xa7, 0x14, 0xcf, 0xaf, 0x68, 0xd7, 0x71, 0x68, 0x5b, 0x1b, 0x9d, 0xeb,
  0x2d, 0x8d, 0x1a, 0x32, 0x9e, 0x94, 0x73, 0x94, 0x47, 0xbf, 0x20, 0x08,
  0xe5, 0x65, 0x00, 0xec, 0x72, 0x53, 0x37, 0xf6, 0xd1, 0x5c, 0x41, 0x29,
  0xc0, 0xf3, 0x64, 0x20, 0x40, 0xab, 0xcc, 0xba, 0xe2, 0x49, 0x64, 0xd4,
  0x83, 0xc4, 0x91, 0xc5, 0x43, 0x30, 0x5b, 0x0c, 0xde, 0xe9, 0xcd, 0x45,
  0x69, 0x61, 0xef, 0x84, 0x60, 0x82, 0xbf, 0x53, 0x85, 0xec, 0x55, 0x14,
  0x82, 0x6d, 0x15, 0xeb, 0x45, 0x79, 0xad, 0x90, 0x8a, 0x55, 0xa1, 0x3a,
  0xda, 0xb1, 0xf7, 0xf0, 0x43, 0x73, 0xf9, 0x02, 0xad, 0xa3, 0xe4, 0x3c,
  0x28, 0x4c, 0xc8, 0xbd, 0x45, 0xe3, 0x58, 0x2a, 0x79, 0x96, 0x38, 0xf7,
  0xa0, 0x94, 0xb5, 0x8b, 0x42, 0xd0, 0xbb, 0x64, 0xb8, 0xe7, 0xe8, 0x87,
  0x5d, 0x2c, 0x7a, 0xa5, 0xe6, 0xad, 0x4b, 0x50, 0xba, 0xa8, 0x20, 0xdd,
  0xd2, 0xfc, 0x5c, 0xe3, 0xae, 0x5f, 0x66, 0x0c, 0x39, 0xb4, 0x44, 0x4b,
  0x2b, 0x48, 0xcd, 0xd0, 0xfd, 0x6a, 0xf9, 0xdd, 0xc0, 0xe9, 0x79, 0x94,
  0xb7, 0x73, 0x4c, 0x28, 0xf9, 0x4f, 0xde, 0x1c, 0x3a, 0xfe, 0xed, 0xdf,
  0xfe, 0x1b, 0x2f, 0x92, 0xf2, 0xda, 0xbb, 0x35, 0xbe, 0x75, 0x0e, 0x76,
  0xbb, 0xe7, 0x05, 0x15, 0xfb, 0x64, 0xa7, 0xc3, 0xff, 0xb5, 0x61, 0x90,
  0x72, 0xcd, 0xd2, 0x89, 0xeb, 0x92, 0x42, 0xb0, 0xe7, 0x90, 0x02, 0xf4,
  0xd5, 0x5f, 0x5c, 0xd1, 0x09, 0x96, 0x64, 0x0c, 0x0b, 0xb7, 0xdb, 0x4a,
  0x08, 0xdc, 0xf5, 0x21, 0x58, 0xfb, 0x66, 0xe0, 0x6f, 0x89, 0x4e, 0xcf,
  0xfc, 0xe0, 0x87, 0xb2, 0x39, 0x32, 0x43, 0xda, 0xcd, 0x46, 0x62, 0x62,
  0x1c, 0xd5, 0x92, 0x33, 0xff, 0xe1, 0x00, 0x2c, 0xc7, 0xcf, 0x1b, 0x6a,
  0x2f, 0x4b, 0x2c, 0x08, 0x51, 0x2a, 0xe7, 0x45, 0x87, 0x91, 0xff, 0x92,
  0xa3, 0x55, 0xe5, 0x0d, 0xd2, 0xdb, 0x18, 0x95, 0xd9, 0xe5, 0x36, 0xd4,
  0x11, 0x1f, 0xf7, 0x8c, 0x88, 0x0f, 0x14, 0x4a, 0x0d, 0x38, 0xd1, 0x08,
  0xa5, 0x4b, 0xee, 0xe5, 0xbc, 0x53, 0x97, 0xb4, 0x8f, 0xae, 0xff, 0x68,
  0x88, 0x9d, 0x31, 0xb4, 0x62, 0xb1, 0x6a, 0x63, 0x2b, 0x33, 0xec, 0xa3,
  0x32, 0xf3, 0xb7, 0xcd, 0x72, 0xd3, 0x1d, 0xd5, 0xc4, 0x5c, 0x21, 0x2b,
  0xc7, 0x26, 0x70, 0x05, 0xdb, 0x6a, 0x06, 0x4f, 0x0a, 0x5c, 0xd5, 0x43,
  0x3a, 0x4b, 0x32, 0x08, 0x93, 0x23, 0xfc, 0xe4, 0x92, 0x5c, 0xd8, 0x16,
  0x36, 0xfd, 0xf8, 0xce, 0x60, 0xd7, 0xdf, 0xf3, 0xf7, 0xb4, 0x37, 0xda,
  0x73, 0x1f, 0xc8, 0x3a, 0xb2, 0xbc, 0x33, 0x60, 0x42, 0xc5, 0xe4, 0x23,
  0xc1, 0xd8, 0xf4, 0x17, 0x67, 0x0f, 0x55, 0x58, 0x98, 0x86, 0xf8, 0xa2,
  0x36, 0x42, 0x79, 0x09, 0x00, 0xe3, 0xd2, 0x90, 0x4a, 0x01, 0x8a, 0x03,
  0x0f, 0x15, 0xbc, 0x2e, 0x36, 0x33, 0xaf, 0xd7, 0x75, 0xcf, 0xf0, 0x67,
  0xb0, 0x96, 0xcb, 0x56, 0xff, 0xf4, 0xfb, 0x08, 0xfc, 0x2e, 0xf9, 0x28,
  0x2f, 0x0b, 0xc4, 0x69, 0x36, 0xc9, 0x23, 0x37, 0x78, 0xbf, 0xff, 0x58,
  0x0c, 0x62, 0x2b, 0x7c, 0xc3, 0x4c, 0x12, 0xc1, 0xa9, 0x5b, 0x33, 0x65,
  0x6a, 0xcb, 0x74, 0xf8, 0xbd, 0xa9, 0xcc, 0xca, 0xfe, 0x71, 0x14, 0x52,
  0x54, 0x21, 0x6e, 0x47, 0x39, 0x2e, 0x59, 0x50, 0x7b, 0xa5, 0x4f, 0xa2,
  0xe5, 0x45, 0x22, 0x10, 0x95, 0x0a, 0x0b, 0xdc, 0xd2, 0xf3, 0xc6, 0xa4,
  0xb8, 0x96, 0x14, 0x79, 0x00, 0x8a, 0xf2, 0x58, 0x42, 0x43, 0x77, 0x60,
  0xb8, 0x25, 0x4c, 0x16, 0x18, 0x2f, 0xd3, 0xa3, 0xdb, 0x0f, 0xb5, 0xa3,
  0x2f, 0x5a, 0x04, 0x31, 0x02, 0xbb, 0xeb, 0x55, 0x11, 0x7c, 0xa1, 0x2a,
  0xce, 0x18, 0xf3, 0x03, 0x1a, 0x68, 0x37, 0x61, 0x6d, 0xed, 0x79, 0x36,
  0xba, 0x1a, 0x18, 0xbf, 0x89, 0x31, 0x12, 0x33, 0x93, 0xa4, 0x8a, 0x9e,
  0x62, 0x3a, 0x89, 0xe1, 0x67, 0x87, 0x27, 0x66, 0x01, 0x85, 0x89, 0x9f,
  0xe9, 0xa0, 0xe1, 0x05, 0xa5, 0x3e, 0xef, 0x9f, 0xa7, 0x11, 0x20, 0xfb,
  0x77, 0x67, 0xc0, 0x92, 0x42, 0xfd, 0x08, 0xef, 0xba, 0xd0, 0x1e, 0xb3,
  0x01, 0x9e, 0xf7, 0x91, 0x9f, 0xb9, 0x0a, 0x62, 0x54, 0xb8, 0x69, 0x29,
  0xd7, 0x6c, 0x3d, 0xa3, 0x59, 0x94, 0xff, 0xd1, 0x4a, 0x17, 0xe5, 0x32,
  0x8a, 0x55, 0x94, 0xf3, 0x48, 0xd2, 0x2d, 0x3e, 0xe0, 0x3d, 0x09, 0x85,
  0x9f, 0x04, 0xee, 0x1e, 0xdd, 0x1b, 0xd7, 0x05, 0xec, 0xcf, 0x09, 0x61,
  0x3b, 0x3b, 0x08, 0x0a, 0xd8, 0xba, 0x01, 0x11, 0x0a, 0x36, 0xa8, 0xb7,
  0x5c, 0x72, 0xc9, 0xb4, 0xad, 0xf3, 0x62, 0x47, 0xf2, 0xf4, 0x37, 0xae,
  0xe2, 0xd2, 0xdf, 0xae, 0xa6, 0xfc, 0xff, 0xff, 0x04, 0x00, 0x00, 0x00,
  0x00, 0x01, 0x00, 0x00, 0x9a, 0x01, 0x00, 0x00, 0x3f, 0xfe, 0xff, 0xff,
  0x00, 0x00, 0x00, 0x00, 0x00, 0x00, 0x00, 0x00, 0x3e, 0xfe, 0xff, 0xff,
  0xc1, 0x01, 0x00, 0x00, 0x00, 0x00, 0x00, 0x00, 0x00, 0x00, 0x00, 0x00,
  0x00, 0x00, 0x00, 0x00, 0x3e, 0xfe, 0xff, 0xff, 0x3e, 0xfe, 0xff, 0xff,
  0xc2, 0x01, 0x00, 0x00, 0x3f, 0xfe, 0xff, 0xff, 0x3e, 0xfe, 0xff, 0xff,
  0xc2, 0x01, 0x00, 0x00, 0x00, 0x00, 0x00, 0x00, 0x00, 0x00, 0x00, 0x00,
  0x3f, 0xfe, 0xff, 0xff, 0x3e, 0xfe, 0xff, 0xff, 0xc2, 0x01, 0x00, 0x00,
  0x00, 0x00, 0x00, 0x00, 0x00, 0x00, 0x00, 0x00, 0xb7, 0x01, 0x00, 0x00,
  0x52, 0xfe, 0xff, 0xff, 0x00, 0x00, 0x00, 0x00, 0x00, 0x00, 0x00, 0x00,
  0xb4, 0x01, 0x00, 0x00, 0x4b, 0xfe, 0xff, 0xff, 0x3e, 0xfe, 0xff, 0xff,
  0xc2, 0x01, 0x00, 0x00, 0x00, 0x00, 0x00, 0x00, 0xbf, 0x01, 0x00, 0x00,
  0x00, 0x00, 0x00, 0x00, 0x3e, 0xfe, 0xff, 0xff, 0x3e, 0xfe, 0xff, 0xff,
  0x00, 0x00, 0x00, 0x00, 0x3e, 0xfe, 0xff, 0xff, 0x00, 0x00, 0x00, 0x00,
  0xb6, 0x01, 0x00, 0x00, 0x3f, 0xfe, 0xff, 0xff, 0xc2, 0x01, 0x00, 0x00,
  0x00, 0x00, 0x00, 0x00, 0x00, 0x00, 0x00, 0x00, 0x00, 0x00, 0x00, 0x00,
  0xc2, 0x01, 0x00, 0x00, 0xc0, 0x01, 0x00, 0x00, 0x00, 0x00, 0x00, 0x00,
  0xc1, 0x01, 0x00, 0x00, 0xc1, 0x01, 0x00, 0x00, 0x00, 0x00, 0x00, 0x00,
  0x00, 0x00, 0x00, 0x00, 0x3f, 0xfe, 0xff, 0xff, 0x00, 0x00, 0x00, 0x00,
  0x00, 0x00, 0x00, 0x00, 0x3e, 0xfe, 0xff, 0xff, 0x00, 0x00, 0x00, 0x00,
  0x00, 0x00, 0x00, 0x00, 0xc0, 0x01, 0x00, 0x00, 0x3e, 0xfe, 0xff, 0xff,
  0x00, 0x00, 0x00, 0x00, 0x41, 0xfe, 0xff, 0xff, 0xbf, 0x01, 0x00, 0x00,
  0x00, 0x00, 0x00, 0x00, 0x00, 0x00, 0x00, 0x00, 0xb2, 0xfd, 0xff, 0xff,
  0x04, 0x00, 0x00, 0x00, 0x00, 0x02, 0x00, 0x00, 0x98, 0x9a, 0x4b, 0x05,
  0x8e, 0x33, 0xca, 0x19, 0xec, 0x88, 0xd6, 0xa9, 0xfe, 0x82, 0x23, 0x1a,
  0xe0, 0x22, 0x3f, 0x0c, 0x26, 0x67, 0x29, 0x29, 0xa4, 0xf8, 0xa0, 0xb9,
  0xa8, 0xfc, 0x3f, 0xba, 0x84, 0xd0, 0x53, 0x2c, 0x6f, 0xb1, 0x24, 0xdf,
  0xd8, 0x7e, 0xfc, 0xbe, 0x82, 0xae, 0x59, 0x23, 0x8b, 0xec, 0xb8, 0x20,
  0x53, 0xd5, 0x15, 0x44, 0x5d, 0x78, 0x44, 0x68, 0x7e, 0xab, 0xae, 0x9d,
  0xfc, 0x22, 0x18, 0xe3, 0x76, 0xcc, 0x4a, 0x62, 0xf5, 0x52, 0x6a, 0xad,
  0x1f, 0x71, 0xc0, 0xe7, 0x7b, 0x2d, 0x4a, 0x91, 0xdf, 0xc0, 0xf9, 0x00,
  0xba, 0x6e, 0xfa, 0x01, 0x73, 0xc1, 0x67, 0xef, 0xdd, 0x4f, 0x6b, 0x17,
  0x54, 0xed, 0xf9, 0x25, 0x90, 0xb9, 0xed, 0x75, 0x82, 0xe9, 0x61, 0xe1,
  0xd3, 0x85, 0xc8, 0x21, 0xaf, 0x24, 0x71, 0x95, 0x3d, 0xec, 0x62, 0x12,
  0x0a, 0xf0, 0x48, 0xd0, 0xe4, 0xc4, 0x3d, 0x8e, 0xef, 0x88, 0xae, 0x7d,
  0x90, 0x8f, 0x84, 0x9c, 0xe9, 0x00, 0xe6, 0x88, 0x41, 0x5f, 0x86, 0xf9,
  0xac, 0xab, 0xeb, 0x60, 0x3d, 0xd0, 0xb4, 0x78, 0x22, 0xf6, 0x96, 0x51,
  0x3b, 0x41, 0xb8, 0x3e, 0x85, 0x57, 0xd8, 0x28, 0x18, 0x26, 0x6d, 0x82,
  0x4a, 0x81, 0xcf, 0xd3, 0xa0, 0xe8, 0x9b, 0x38, 0xbb, 0x84, 0x7a, 0xb0,
  0x8d, 0xcf, 0x61, 0x3e, 0x76, 0x87, 0xbe, 0x3d, 0x1e, 0xf1, 0x0a, 0xfc,
  0xd5, 0xc8, 0x8b, 0x7b, 0x7a, 0xb5, 0x60, 0xd6, 0x22, 0xd6, 0x89, 0x86,
  0xea, 0x5b, 0x0a, 0x47, 0x10, 0x2a, 0x21, 0xfb, 0xe2, 0x2a, 0xc9, 0xcc,
  0xd7, 0xa2, 0x4a, 0x36, 0x57, 0x70, 0x2b, 0xe5, 0x30, 0x6c, 0x5d, 0xd2,
  0x07, 0xed, 0x9b, 0xc5, 0x8e, 0xbf, 0x01, 0xa5, 0x8a, 0xe1, 0x8f, 0x1f,
  0xeb, 0x7c, 0xd7, 0xad, 0x63, 0xab, 0x77, 0xc8, 0x06, 0xeb, 0x16, 0xf2,
  0x69, 0xc3, 0x32, 0x9e, 0x28, 0xd9, 0xaf, 0x6b, 0xc5, 0x1b, 0xfb, 0x30,
  0x4d, 0x9f, 0x9f, 0xce, 0x0e, 0x26, 0x6d, 0x8e, 0x86, 0x3c, 0x14, 0xd1,
  0x7b, 0xf7, 0xcb, 0xd7, 0x29, 0x05, 0x09, 0x72, 0xa0, 0x7e, 0x93, 0xb3,
  0x6f, 0x3b, 0xeb, 0x98, 0x8b, 0x0d, 0x88, 0x06, 0x46, 0xb9, 0xd0, 0x2f,
  0xab, 0x61, 0xb6, 0xcc, 0x1a, 0x61, 0xe3, 0x09, 0x82, 0xae, 0xd1, 0xcb,
  0x99, 0xba, 0x4c, 0x6a, 0x78, 0x55, 0x12, 0xc7, 0x3d, 0x3f, 0xf5, 0x30,
  0x96, 0x98, 0x5e, 0x7b, 0xd7, 0x2c, 0x4d, 0x1a, 0x53, 0xed, 0x1e, 0xdf,
  0x7a, 0xef, 0xdd, 0xa1, 0x15, 0xf2, 0x98, 0xea, 0x22, 0x96, 0xb1, 0x8f,
  0x3f, 0xf2, 0x68, 0x6e, 0x92, 0x10, 0xaa, 0x1c, 0x37, 0xea, 0xa9, 0xbc,
  0x6d, 0xb9, 0x7d, 0x6a, 0x33, 0x0b, 0x95, 0x0e, 0x48, 0x48, 0x6f, 0xaf,
  0x93, 0xae, 0xd3, 0x98, 0x0b, 0xb5, 0xaf, 0x2b, 0x6a, 0x22, 0x8f, 0x21,
  0x58, 0xb7, 0x7e, 0x28, 0xf7, 0xac, 0x68, 0x42, 0x5c, 0xa7, 0x2d, 0xb3,
  0x9f, 0xda, 0xd1, 0xbe, 0x7c, 0x3d, 0xa8, 0xd2, 0x81, 0x38, 0xf9, 0x04,
  0xfa, 0xcb, 0xf7, 0xe6, 0xbc, 0x58, 0x10, 0xc9, 0xd6, 0x71, 0x8c, 0xde,
  0x43, 0xdb, 0x7b, 0xdd, 0x49, 0xf1, 0xbe, 0xba, 0x21, 0x3f, 0x2a, 0x0a,
  0x43, 0x4d, 0x20, 0xc4, 0x58, 0xf8, 0x9b, 0xa0, 0xeb, 0xff, 0xa9, 0xf8,
  0x43, 0x65, 0x55, 0xfa, 0x40, 0xb0, 0xb7, 0x54, 0xec, 0xc1, 0x3c, 0xa7,
  0xc0, 0x4d, 0xa9, 0x92, 0x75, 0x8b, 0xae, 0x8a, 0xda, 0x4a, 0xaf, 0x85,
  0xea, 0x34, 0x79, 0x11, 0x58, 0x95, 0xa2, 0x94, 0x68, 0x2b, 0x3b, 0x5b,
  0xe6, 0xe4, 0x9a, 0x6f, 0xd4, 0x7d, 0x7f, 0xaa, 0xc9, 0x55, 0x8f, 0xc8,
  0x98, 0xb6, 0xce, 0xd3, 0x50, 0xd6, 0xb9, 0x7d, 0xd3, 0xb3, 0x6e, 0x38,
  0xe1, 0xdc, 0xd2, 0xc5, 0xbe, 0xff, 0xff, 0xff, 0x04, 0x00, 0x00, 0x00,
  0x20, 0x00, 0x00, 0x00, 0x00, 0x00, 0x00, 0x00, 0x0b, 0xff, 0xff, 0xff,
  0x00, 0x00, 0x00, 0x00, 0x00, 0x00, 0x00, 0x00, 0x00, 0x00, 0x00, 0x00,
  0x00, 0x00, 0x00, 0x00, 0x00, 0x00, 0x00, 0x00, 0x00, 0x00, 0x00, 0x00,
  0xea, 0xff, 0xff, 0xff, 0x04, 0x00, 0x00, 0x00, 0x08, 0x00, 0x00, 0x00,
  0x7a, 0x79, 0x53, 0x00, 0x81, 0x49, 0x30, 0x85, 0x00, 0x00, 0x06, 0x00,
  0x08, 0x00, 0x04, 0x00, 0x06, 0x00, 0x00, 0x00, 0x04, 0x00, 0x00, 0x00,
  0x04, 0x00, 0x00, 0x00, 0x70, 0x5d, 0x0b, 0x0a, 0x80, 0xff, 0xff, 0xff,
  0x84, 0xff, 0xff, 0xff, 0x0f, 0x00, 0x00, 0x00, 0x4d, 0x4c, 0x49, 0x52,
  0x20, 0x43, 0x6f, 0x6e, 0x76, 0x65, 0x72, 0x74, 0x65, 0x64, 0x2e, 0x00,
  0x01, 0x00, 0x00, 0x00, 0x14, 0x00, 0x00, 0x00, 0x00, 0x00, 0x0e, 0x00,
  0x18, 0x00, 0x14, 0x00, 0x10, 0x00, 0x0c, 0x00, 0x08, 0x00, 0x04, 0x00,
  0x0e, 0x00, 0x00, 0x00, 0x14, 0x00, 0x00, 0x00, 0x1c, 0x00, 0x00, 0x00,
  0x14, 0x01, 0x00, 0x00, 0x18, 0x01, 0x00, 0x00, 0x1c, 0x01, 0x00, 0x00,
  0x04, 0x00, 0x00, 0x00, 0x6d, 0x61, 0x69, 0x6e, 0x00, 0x00, 0x00, 0x00,
  0x04, 0x00, 0x00, 0x00, 0xbc, 0x00, 0x00, 0x00, 0x74, 0x00, 0x00, 0x00,
  0x3c, 0x00, 0x00, 0x00, 0x04, 0x00, 0x00, 0x00, 0x62, 0xff, 0xff, 0xff,
  0x14, 0x00, 0x00, 0x00, 0x00, 0x00, 0x00, 0x08, 0x10, 0x00, 0x00, 0x00,
  0x14, 0x00, 0x00, 0x00, 0x04, 0x00, 0x04, 0x00, 0x04, 0x00, 0x00, 0x00,
  0x01, 0x00, 0x00, 0x00, 0x0c, 0x00, 0x00, 0x00, 0x03, 0x00, 0x00, 0x00,
  0x0b, 0x00, 0x00, 0x00, 0x02, 0x00, 0x00, 0x00, 0x01, 0x00, 0x00, 0x00,
  0x96, 0xff, 0xff, 0xff, 0x10, 0x00, 0x00, 0x00, 0x00, 0x00, 0x00, 0x08,
  0x10, 0x00, 0x00, 0x00, 0x14, 0x00, 0x00, 0x00, 0x86, 0xff, 0xff, 0xff,
  0x00, 0x00, 0x00, 0x01, 0x01, 0x00, 0x00, 0x00, 0x0b, 0x00, 0x00, 0x00,
  0x03, 0x00, 0x00, 0x00, 0x0a, 0x00, 0x00, 0x00, 0x04, 0x00, 0x00, 0x00,
  0x03, 0x00, 0x00, 0x00, 0xca, 0xff, 0xff, 0xff, 0x10, 0x00, 0x00, 0x00,
  0x00, 0x00, 0x00, 0x08, 0x10, 0x00, 0x00, 0x00, 0x14, 0x00, 0x00, 0x00,
  0xba, 0xff, 0xff, 0xff, 0x00, 0x00, 0x00, 0x01, 0x01, 0x00, 0x00, 0x00,
  0x0a, 0x00, 0x00, 0x00, 0x03, 0x00, 0x00, 0x00, 0x09, 0x00, 0x00, 0x00,
  0x06, 0x00, 0x00, 0x00, 0x05, 0x00, 0x00, 0x00, 0x00, 0x00, 0x0e, 0x00,
  0x16, 0x00, 0x00, 0x00, 0x10, 0x00, 0x0c, 0x00, 0x0b, 0x00, 0x04, 0x00,
  0x0e, 0x00, 0x00, 0x00, 0x18, 0x00, 0x00, 0x00, 0x00, 0x00, 0x00, 0x08,
  0x18, 0x00, 0x00, 0x00, 0x1c, 0x00, 0x00, 0x00, 0x00, 0x00, 0x06, 0x00,
  0x08, 0x00, 0x07, 0x00, 0x06, 0x00, 0x00, 0x00, 0x00, 0x00, 0x00, 0x01,
  0x01, 0x00, 0x00, 0x00, 0x09, 0x00, 0x00, 0x00, 0x03, 0x00, 0x00, 0x00,
  0x00, 0x00, 0x00, 0x00, 0x08, 0x00, 0x00, 0x00, 0x07, 0x00, 0x00, 0x00,
  0x01, 0x00, 0x00, 0x00, 0x0c, 0x00, 0x00, 0x00, 0x01, 0x00, 0x00, 0x00,
  0x00, 0x00, 0x00, 0x00, 0x0d, 0x00, 0x00, 0x00, 0x58, 0x06, 0x00, 0x00,
  0xc8, 0x05, 0x00, 0x00, 0x44, 0x05, 0x00, 0x00, 0xc8, 0x04, 0x00, 0x00,
  0x5c, 0x04, 0x00, 0x00, 0xe0, 0x03, 0x00, 0x00, 0x74, 0x03, 0x00, 0x00,
  0x00, 0x03, 0x00, 0x00, 0x94, 0x02, 0x00, 0x00, 0xe8, 0x01, 0x00, 0x00,
  0x34, 0x01, 0x00, 0x00, 0x80, 0x00, 0x00, 0x00, 0x04, 0x00, 0x00, 0x00,
  0xf2, 0xf9, 0xff, 0xff, 0x00, 0x00, 0x00, 0x01, 0x18, 0x00, 0x00, 0x00,
  0x20, 0x00, 0x00, 0x00, 0x3c, 0x00, 0x00, 0x00, 0x0d, 0x00, 0x00, 0x00,
  0x00, 0x00, 0x00, 0x09, 0x50, 0x00, 0x00, 0x00, 0x02, 0x00, 0x00, 0x00,
  0xff, 0xff, 0xff, 0xff, 0x01, 0x00, 0x00, 0x00, 0xdc, 0xf9, 0xff, 0xff,
  0x08, 0x00, 0x00, 0x00, 0x10, 0x00, 0x00, 0x00, 0x01, 0x00, 0x00, 0x00,
  0x80, 0xff, 0xff, 0xff, 0xff, 0xff, 0xff, 0xff, 0x01, 0x00, 0x00, 0x00,
  0x66, 0x59, 0x01, 0x38, 0x19, 0x00, 0x00, 0x00, 0x53, 0x74, 0x61, 0x74,
  0x65, 0x66, 0x75, 0x6c, 0x50, 0x61, 0x72, 0x74, 0x69, 0x74, 0x69, 0x6f,
  0x6e, 0x65, 0x64, 0x43, 0x61, 0x6c, 0x6c, 0x3a, 0x30, 0x00, 0x00, 0x00,
  0x02, 0x00, 0x00, 0x00, 0x01, 0x00, 0x00, 0x00, 0x01, 0x00, 0x00, 0x00,
  0x6a, 0xfa, 0xff, 0xff, 0x00, 0x00, 0x00, 0x01, 0x18, 0x00, 0x00, 0x00,
  0x20, 0x00, 0x00, 0x00, 0x40, 0x00, 0x00, 0x00, 0x0c, 0x00, 0x00, 0x00,
  0x00, 0x00, 0x00, 0x09, 0x88, 0x00, 0x00, 0x00, 0x02, 0x00, 0x00, 0x00,
  0xff, 0xff, 0xff, 0xff, 0x08, 0x00, 0x00, 0x00, 0x54, 0xfa, 0xff, 0xff,
  0x08, 0x00, 0x00, 0x00, 0x14, 0x00, 0x00, 0x00, 0x01, 0x00, 0x00, 0x00,
  0x00, 0x00, 0x00, 0x00, 0x00, 0x00, 0x00, 0x00, 0x00, 0x00, 0x00, 0x00,
  0x01, 0x00, 0x00, 0x00, 0x7b, 0xbe, 0x06, 0x32, 0x4c, 0x00, 0x00, 0x00,
  0x73, 0x65, 0x71, 0x75, 0x65, 0x6e, 0x74, 0x69, 0x61, 0x6c, 0x2f, 0x64,
  0x65, 0x6e, 0x73, 0x65, 0x5f, 0x32, 0x2f, 0x4d, 0x61, 0x74, 0x4d, 0x75,
  0x6c, 0x3b, 0x73, 0x65, 0x71, 0x75, 0x65, 0x6e, 0x74, 0x69, 0x61, 0x6c,
  0x2f, 0x64, 0x65, 0x6e, 0x73, 0x65, 0x5f, 0x32, 0x2f, 0x52, 0x65, 0x6c,
  0x75, 0x3b, 0x73, 0x65, 0x71, 0x75, 0x65, 0x6e, 0x74, 0x69, 0x61, 0x6c,
  0x2f, 0x64, 0x65, 0x6e, 0x73, 0x65, 0x5f, 0x32, 0x2f, 0x42, 0x69, 0x61,
  0x73, 0x41, 0x64, 0x64, 0x00, 0x00, 0x00, 0x00, 0x02, 0x00, 0x00, 0x00,
  0x01, 0x00, 0x00, 0x00, 0x08, 0x00, 0x00, 0x00, 0x1a, 0xfb, 0xff, 0xff,
  0x00, 0x00, 0x00, 0x01, 0x18, 0x00, 0x00, 0x00, 0x20, 0x00, 0x00, 0x00,
  0x40, 0x00, 0x00, 0x00, 0x0b, 0x00, 0x00, 0x00, 0x00, 0x00, 0x00, 0x09,
  0x88, 0x00, 0x00, 0x00, 0x02, 0x00, 0x00, 0x00, 0xff, 0xff, 0xff, 0xff,
  0x40, 0x00, 0x00, 0x00, 0x04, 0xfb, 0xff, 0xff, 0x08, 0x00, 0x00, 0x00,
  0x14, 0x00, 0x00, 0x00, 0x01, 0x00, 0x00, 0x00, 0x80, 0xff, 0xff, 0xff,
  0xff, 0xff, 0xff, 0xff, 0x00, 0x00, 0x00, 0x00, 0x01, 0x00, 0x00, 0x00,
  0x30, 0x6e, 0x30, 0x3c, 0x4c, 0x00, 0x00, 0x00, 0x73, 0x65, 0x71, 0x75,
  0x65, 0x6e, 0x74, 0x69, 0x61, 0x6c, 0x2f, 0x64, 0x65, 0x6e, 0x73, 0x65,
  0x5f, 0x31, 0x2f, 0x4d, 0x61, 0x74, 0x4d, 0x75, 0x6c, 0x3b, 0x73, 0x65,
  0x71, 0x75, 0x65, 0x6e, 0x74, 0x69, 0x61, 0x6c, 0x2f, 0x64, 0x65, 0x6e,
  0x73, 0x65, 0x5f, 0x31, 0x2f, 0x52, 0x65, 0x6c, 0x75, 0x3b, 0x73, 0x65,
  0x71, 0x75, 0x65, 0x6e, 0x74, 0x69, 0x61, 0x6c, 0x2f, 0x64, 0x65, 0x6e,
  0x73, 0x65, 0x5f, 0x31, 0x2f, 0x42, 0x69, 0x61, 0x73, 0x41, 0x64, 0x64,
  0x00, 0x00, 0x00, 0x00, 0x02, 0x00, 0x00, 0x00, 0x01, 0x00, 0x00, 0x00,
  0x40, 0x00, 0x00, 0x00, 0xca, 0xfb, 0xff, 0xff, 0x00, 0x00, 0x00, 0x01,
  0x18, 0x00, 0x00, 0x00, 0x20, 0x00, 0x00, 0x00, 0x40, 0x00, 0x00, 0x00,
  0x0a, 0x00, 0x00, 0x00, 0x00, 0x00, 0x00, 0x09, 0x80, 0x00, 0x00, 0x00,
  0x02, 0x00, 0x00, 0x00, 0xff, 0xff, 0xff, 0xff, 0x40, 0x00, 0x00, 0x00,
  0xb4, 0xfb, 0xff, 0xff, 0x08, 0x00, 0x00, 0x00, 0x14, 0x00, 0x00, 0x00,
  0x01, 0x00, 0x00, 0x00, 0x80, 0xff, 0xff, 0xff, 0xff, 0xff, 0xff, 0xff,
  0x00, 0x00, 0x00, 0x00, 0x01, 0x00, 0x00, 0x00, 0x25, 0x64, 0xf9, 0x3b,
  0x46, 0x00, 0x00, 0x00, 0x73, 0x65, 0x71, 0x75, 0x65, 0x6e, 0x74, 0x69,
  0x61, 0x6c, 0x2f, 0x64, 0x65, 0x6e, 0x73, 0x65, 0x2f, 0x4d, 0x61, 0x74,
  0x4d, 0x75, 0x6c, 0x3b, 0x73, 0x65, 0x71, 0x75, 0x65, 0x6e, 0x74, 0x69,
  0x61, 0x6c, 0x2f, 0x64, 0x65, 0x6e, 0x73, 0x65, 0x2f, 0x52, 0x65, 0x6c,
  0x75, 0x3b, 0x73, 0x65, 0x71, 0x75, 0x65, 0x6e, 0x74, 0x69, 0x61, 0x6c,
  0x2f, 0x64, 0x65, 0x6e, 0x73, 0x65, 0x2f, 0x42, 0x69, 0x61, 0x73, 0x41,
  0x64, 0x64, 0x00, 0x00, 0x02, 0x00, 0x00, 0x00, 0x01, 0x00, 0x00, 0x00,
  0x40, 0x00, 0x00, 0x00, 0xfe, 0xfc, 0xff, 0xff, 0x00, 0x00, 0x00, 0x01,
  0x14, 0x00, 0x00, 0x00, 0x34, 0x00, 0x00, 0x00, 0x09, 0x00, 0x00, 0x00,
  0x00, 0x00, 0x00, 0x09, 0x44, 0x00, 0x00, 0x00, 0x4c, 0xfc, 0xff, 0xff,
  0x08, 0x00, 0x00, 0x00, 0x14, 0x00, 0x00, 0x00, 0x01, 0x00, 0x00, 0x00,
  0x00, 0x00, 0x00, 0x00, 0x00, 0x00, 0x00, 0x00, 0x00, 0x00, 0x00, 0x00,
  0x01, 0x00, 0x00, 0x00, 0xea, 0x2e, 0x1f, 0x3b, 0x17, 0x00, 0x00, 0x00,
  0x73, 0x65, 0x71, 0x75, 0x65, 0x6e, 0x74, 0x69, 0x61, 0x6c, 0x2f, 0x64,
  0x65, 0x6e, 0x73, 0x65, 0x2f, 0x4d, 0x61, 0x74, 0x4d, 0x75, 0x6c, 0x00,
  0x02, 0x00, 0x00, 0x00, 0x40, 0x00, 0x00, 0x00, 0x01, 0x00, 0x00, 0x00,
  0x66, 0xfd, 0xff, 0xff, 0x00, 0x00, 0x00, 0x01, 0x14, 0x00, 0x00, 0x00,
  0x30, 0x00, 0x00, 0x00, 0x08, 0x00, 0x00, 0x00, 0x00, 0x00, 0x00, 0x02,
  0x50, 0x00, 0x00, 0x00, 0xb4, 0xfc, 0xff, 0xff, 0x08, 0x00, 0x00, 0x00,
  0x10, 0x00, 0x00, 0x00, 0x01, 0x00, 0x00, 0x00, 0x00, 0x00, 0x00, 0x00,
  0x00, 0x00, 0x00, 0x00, 0x01, 0x00, 0x00, 0x00, 0xee, 0x93, 0x7a, 0x38,
  0x27, 0x00, 0x00, 0x00, 0x73, 0x65, 0x71, 0x75, 0x65, 0x6e, 0x74, 0x69,
  0x61, 0x6c, 0x2f, 0x64, 0x65, 0x6e, 0x73, 0x65, 0x2f, 0x42, 0x69, 0x61,
  0x73, 0x41, 0x64, 0x64, 0x2f, 0x52, 0x65, 0x61, 0x64, 0x56, 0x61, 0x72,
  0x69, 0x61, 0x62, 0x6c, 0x65, 0x4f, 0x70, 0x00, 0x01, 0x00, 0x00, 0x00,
  0x40, 0x00, 0x00, 0x00, 0xd6, 0xfd, 0xff, 0xff, 0x00, 0x00, 0x00, 0x01,
  0x14, 0x00, 0x00, 0x00, 0x30, 0x00, 0x00, 0x00, 0x07, 0x00, 0x00, 0x00,
  0x00, 0x00, 0x00, 0x09, 0x44, 0x00, 0x00, 0x00, 0x24, 0xfd, 0xff, 0xff,
  0x08, 0x00, 0x00, 0x00, 0x10, 0x00, 0x00, 0x00, 0x01, 0x00, 0x00, 0x00,
  0x00, 0x00, 0x00, 0x00, 0x00, 0x00, 0x00, 0x00, 0x01, 0x00, 0x00, 0x00,
  0x5b, 0x9c, 0xe5, 0x3a, 0x19, 0x00, 0x00, 0x00, 0x73, 0x65, 0x71, 0x75,
  0x65, 0x6e, 0x74, 0x69, 0x61, 0x6c, 0x2f, 0x64, 0x65, 0x6e, 0x73, 0x65,
  0x5f, 0x31, 0x2f, 0x4d, 0x61, 0x74, 0x4d, 0x75, 0x6c, 0x00, 0x00, 0x00,
  0x02, 0x00, 0x00, 0x00, 0x40, 0x00, 0x00, 0x00, 0x40, 0x00, 0x00, 0x00,
  0x3e, 0xfe, 0xff, 0xff, 0x00, 0x00, 0x00, 0x01, 0x14, 0x00, 0x00, 0x00,
  0x34, 0x00, 0x00, 0x00, 0x06, 0x00, 0x00, 0x00, 0x00, 0x00, 0x00, 0x02,
  0x58, 0x00, 0x00, 0x00, 0x8c, 0xfd, 0xff, 0xff, 0x08, 0x00, 0x00, 0x00,
  0x14, 0x00, 0x00, 0x00, 0x01, 0x00, 0x00, 0x00, 0x00, 0x00, 0x00, 0x00,
  0x00, 0x00, 0x00, 0x00, 0x00, 0x00, 0x00, 0x00, 0x01, 0x00, 0x00, 0x00,
  0xe7, 0xae, 0x5f, 0x37, 0x29, 0x00, 0x00, 0x00, 0x73, 0x65, 0x71, 0x75,
  0x65, 0x6e, 0x74, 0x69, 0x61, 0x6c, 0x2f, 0x64, 0x65, 0x6e, 0x73, 0x65,
  0x5f, 0x31, 0x2f, 0x42, 0x69, 0x61, 0x73, 0x41, 0x64, 0x64, 0x2f, 0x52,
  0x65, 0x61, 0x64, 0x56, 0x61, 0x72, 0x69, 0x61, 0x62, 0x6c, 0x65, 0x4f,
  0x70, 0x00, 0x00, 0x00, 0x01, 0x00, 0x00, 0x00, 0x40, 0x00, 0x00, 0x00,
  0xb6, 0xfe, 0xff, 0xff, 0x00, 0x00, 0x00, 0x01, 0x14, 0x00, 0x00, 0x00,
  0x30, 0x00, 0x00, 0x00, 0x05, 0x00, 0x00, 0x00, 0x00, 0x00, 0x00, 0x09,
  0x44, 0x00, 0x00, 0x00, 0x04, 0xfe, 0xff, 0xff, 0x08, 0x00, 0x00, 0x00,
  0x10, 0x00, 0x00, 0x00, 0x01, 0x00, 0x00, 0x00, 0x00, 0x00, 0x00, 0x00,
  0x00, 0x00, 0x00, 0x00, 0x01, 0x00, 0x00, 0x00, 0x60, 0xdd, 0x14, 0x3b,
  0x19, 0x00, 0x00, 0x00, 0x73, 0x65, 0x71, 0x75, 0x65, 0x6e, 0x74, 0x69,
  0x61, 0x6c, 0x2f, 0x64, 0x65, 0x6e, 0x73, 0x65, 0x5f, 0x32, 0x2f, 0x4d,
  0x61, 0x74, 0x4d, 0x75, 0x6c, 0x00, 0x00, 0x00, 0x02, 0x00, 0x00, 0x00,
  0x08, 0x00, 0x00, 0x00, 0x40, 0x00, 0x00, 0x00, 0x1e, 0xff, 0xff, 0xff,
  0x00, 0x00, 0x00, 0x01, 0x14, 0x00, 0x00, 0x00, 0x34, 0x00, 0x00, 0x00,
  0x04, 0x00, 0x00, 0x00, 0x00, 0x00, 0x00, 0x02, 0x58, 0x00, 0x00, 0x00,
  0x6c, 0xfe, 0xff, 0xff, 0x08, 0x00, 0x00, 0x00, 0x14, 0x00, 0x00, 0x00,
  0x01, 0x00, 0x00, 0x00, 0x00, 0x00, 0x00, 0x00, 0x00, 0x00, 0x00, 0x00,
  0x00, 0x00, 0x00, 0x00, 0x01, 0x00, 0x00, 0x00, 0x8a, 0x30, 0xcd, 0x37,
  0x29, 0x00, 0x00, 0x00, 0x73, 0x65, 0x71, 0x75, 0x65, 0x6e, 0x74, 0x69,
  0x61, 0x6c, 0x2f, 0x64, 0x65, 0x6e, 0x73, 0x65, 0x5f, 0x32, 0x2f, 0x42,
  0x69, 0x61, 0x73, 0x41, 0x64, 0x64, 0x2f, 0x52, 0x65, 0x61, 0x64, 0x56,
  0x61, 0x72, 0x69, 0x61, 0x62, 0x6c, 0x65, 0x4f, 0x70, 0x00, 0x00, 0x00,
  0x01, 0x00, 0x00, 0x00, 0x08, 0x00, 0x00, 0x00, 0x96, 0xff, 0xff, 0xff,
  0x00, 0x00, 0x00, 0x01, 0x14, 0x00, 0x00, 0x00, 0x30, 0x00, 0x00, 0x00,
  0x03, 0x00, 0x00, 0x00, 0x00, 0x00, 0x00, 0x09, 0x44, 0x00, 0x00, 0x00,
  0xe4, 0xfe, 0xff, 0xff, 0x08, 0x00, 0x00, 0x00, 0x10, 0x00, 0x00, 0x00,
  0x01, 0x00, 0x00, 0x00, 0x00, 0x00, 0x00, 0x00, 0x00, 0x00, 0x00, 0x00,
  0x01, 0x00, 0x00, 0x00, 0x7d, 0xf7, 0xc2, 0x3b, 0x19, 0x00, 0x00, 0x00,
  0x73, 0x65, 0x71, 0x75, 0x65, 0x6e, 0x74, 0x69, 0x61, 0x6c, 0x2f, 0x64,
  0x65, 0x6e, 0x73, 0x65, 0x5f, 0x33, 0x2f, 0x4d, 0x61, 0x74, 0x4d, 0x75,
  0x6c, 0x00, 0x00, 0x00, 0x02, 0x00, 0x00, 0x00, 0x01, 0x00, 0x00, 0x00,
  0x08, 0x00, 0x00, 0x00, 0x00, 0x00, 0x16, 0x00, 0x1c, 0x00, 0x18, 0x00,
  0x17, 0x00, 0x10, 0x00, 0x0c, 0x00, 0x08, 0x00, 0x00, 0x00, 0x00, 0x00,
  0x00, 0x00, 0x07, 0x00, 0x16, 0x00, 0x00, 0x00, 0x00, 0x00, 0x00, 0x01,
  0x14, 0x00, 0x00, 0x00, 0x30, 0x00, 0x00, 0x00, 0x02, 0x00, 0x00, 0x00,
  0x00, 0x00, 0x00, 0x02, 0x54, 0x00, 0x00, 0x00, 0x64, 0xff, 0xff, 0xff,
  0x08, 0x00, 0x00, 0x00, 0x10, 0x00, 0x00, 0x00, 0x01, 0x00, 0x00, 0x00,
  0x00, 0x00, 0x00, 0x00, 0x00, 0x00, 0x00, 0x00, 0x01, 0x00, 0x00, 0x00,
  0x3a, 0x3d, 0x4d, 0x2e, 0x29, 0x00, 0x00, 0x00, 0x73, 0x65, 0x71, 0x75,
  0x65, 0x6e, 0x74, 0x69, 0x61, 0x6c, 0x2f, 0x64, 0x65, 0x6e, 0x73, 0x65,
  0x5f, 0x33, 0x2f, 0x42, 0x69, 0x61, 0x73, 0x41, 0x64, 0x64, 0x2f, 0x52,
  0x65, 0x61, 0x64, 0x56, 0x61, 0x72, 0x69, 0x61, 0x62, 0x6c, 0x65, 0x4f,
  0x70, 0x00, 0x00, 0x00, 0x01, 0x00, 0x00, 0x00, 0x01, 0x00, 0x00, 0x00,
  0x00, 0x00, 0x16, 0x00, 0x20, 0x00, 0x1c, 0x00, 0x1b, 0x00, 0x14, 0x00,
  0x10, 0x00, 0x0c, 0x00, 0x00, 0x00, 0x00, 0x00, 0x08, 0x00, 0x07, 0x00,
  0x16, 0x00, 0x00, 0x00, 0x00, 0x00, 0x00, 0x01, 0x18, 0x00, 0x00, 0x00,
  0x2c, 0x00, 0x00, 0x00, 0x4c, 0x00, 0x00, 0x00, 0x01, 0x00, 0x00, 0x00,
  0x00, 0x00, 0x00, 0x09, 0x64, 0x00, 0x00, 0x00, 0x02, 0x00, 0x00, 0x00,
  0xff, 0xff, 0xff, 0xff, 0x01, 0x00, 0x00, 0x00, 0x0c, 0x00, 0x0c, 0x00,
  0x00, 0x00, 0x00, 0x00, 0x08, 0x00, 0x04, 0x00, 0x0c, 0x00, 0x00, 0x00,
  0x08, 0x00, 0x00, 0x00, 0x14, 0x00, 0x00, 0x00, 0x01, 0x00, 0x00, 0x00,
  0x80, 0xff, 0xff, 0xff, 0xff, 0xff, 0xff, 0xff, 0x00, 0x00, 0x00, 0x00,
  0x01, 0x00, 0x00, 0x00, 0xa6, 0x7d, 0xc9, 0x3c, 0x1d, 0x00, 0x00, 0x00,
  0x73, 0x65, 0x72, 0x76, 0x69, 0x6e, 0x67, 0x5f, 0x64, 0x65, 0x66, 0x61,
  0x75, 0x6c, 0x74, 0x5f, 0x64, 0x65, 0x6e, 0x73, 0x65, 0x5f, 0x69, 0x6e,
  0x70, 0x75, 0x74, 0x3a, 0x30, 0x00, 0x00, 0x00, 0x02, 0x00, 0x00, 0x00,
  0x01, 0x00, 0x00, 0x00, 0x01, 0x00, 0x00, 0x00, 0x01, 0x00, 0x00, 0x00,
  0x10, 0x00, 0x00, 0x00, 0x0c, 0x00, 0x10, 0x00, 0x0f, 0x00, 0x00, 0x00,
  0x08, 0x00, 0x04, 0x00, 0x0c, 0x00, 0x00, 0x00, 0x09, 0x00, 0x00, 0x00,
  0x04, 0x00, 0x00, 0x00, 0x00, 0x00, 0x00, 0x09
};
const unsigned int model_data_quant_len = 7976;
